<unk>	0
<s>	0
</s>	0
,	-2.59151
.	-3.34621
'	-3.72652
▁and	-3.7614
s	-4.19919
?	-4.58901
▁of	-4.59573
▁	-4.67148
▁that	-4.68452
▁to	-4.82224
▁in	-5.04972
▁is	-5.07398
▁the	-5.10865
▁or	-5.16773
n	-5.23768
▁it	-5.31199
▁for	-5.47596
t	-5.4899
;	-5.51537
▁a	-5.55501
▁as	-5.60769
▁'	-5.6103
▁by	-5.67683
ing	-5.6855
▁but	-5.70168
▁I	-5.76171
▁you	-5.81562
▁are	-5.92645
▁with	-5.99245
:	-6.04231
▁then	-6.07407
▁Socrates	-6.07595
▁from	-6.07697
▁not	-6.10239
▁And	-6.11565
▁this	-6.134
▁one	-6.14353
▁what	-6.1739
▁we	-6.19493
ly	-6.20536
▁he	-6.20768
▁(	-6.26033
d	-6.27558
▁on	-6.31997
▁their	-6.32506
▁was	-6.34245
▁which	-6.34639
▁about	-6.35945
▁his	-6.36279
▁they	-6.36422
▁But	-6.36579
ed	-6.38917
▁to▁be	-6.40911
▁The	-6.42787
▁of▁the	-6.43192
▁them	-6.43842
▁will	-6.50896
▁So	-6.55156
▁if	-6.57481
▁now	-6.62648
▁all	-6.63801
▁don	-6.64149
▁so	-6.65058
▁have	-6.67653
e	-6.69105
▁both	-6.70737
▁would	-6.73364
▁things	-6.73444
re	-6.74101
▁than	-6.75659
▁too	-6.79293
▁Then	-6.80168
.'▁'	-6.80624
▁who	-6.81834
▁being	-6.82165
)	-6.8291
▁our	-6.8298
▁him	-6.83181
▁be	-6.83632
▁only	-6.83822
▁were	-6.84245
▁in▁the	-6.85161
▁Now	-6.85883
▁has	-6.86461
m	-6.91959
▁it▁is	-6.93153
▁me	-6.94462
▁when	-6.9482
▁some	-6.95494
▁something	-6.97486
▁also	-6.99972
▁people	-7.01011
▁more	-7.01196
▁should	-7.0176
▁That	-7.0235
▁at	-7.03093
▁just	-7.04315
ll	-7.046
▁like	-7.05071
▁Well	-7.06959
▁any	-7.07926
▁your	-7.08061
y	-7.08657
▁good	-7.09176
▁either	-7.10404
▁to▁the	-7.11138
▁itself	-7.12699
▁nor	-7.12879
▁the▁same	-7.14023
▁these	-7.14648
▁those	-7.15267
▁must	-7.16213
▁What	-7.16616
▁out	-7.16815
▁For	-7.17207
▁how	-7.1797
▁into	-7.18362
▁there	-7.19889
▁and▁the	-7.20399
▁whether	-7.20995
?'▁'	-7.21697
▁an	-7.22526
▁my	-7.2344
▁even	-7.23506
▁here	-7.23645
▁without	-7.24578
▁can	-7.25651
▁It	-7.25956
,▁'	-7.28079
▁do	-7.28637
▁such	-7.28884
▁If	-7.30411
▁us	-7.30576
▁while	-7.31455
▁always	-7.31926
▁no	-7.3214
▁before	-7.32714
▁He	-7.32928
▁many	-7.33632
▁he▁said	-7.33953
er	-7.34125
▁himself	-7.34514
▁because	-7.35322
▁had	-7.35665
▁does	-7.36701
▁You	-7.36772
▁over	-7.36835
▁would▁be	-7.38944
.▁'	-7.39395
▁A	-7.39525
▁knowledge	-7.42241
▁first	-7.42859
▁most	-7.42956
▁will▁be	-7.44622
▁men	-7.45015
▁they▁are	-7.45236
▁Yes	-7.45743
▁themselves	-7.49174
▁since	-7.49202
▁said	-7.49466
▁very	-7.49607
▁that▁is	-7.4962
▁I▁think	-7.4984
s▁of	-7.49883
▁man	-7.50708
▁up	-7.50932
▁through	-7.51524
▁well	-7.51531
▁In	-7.52448
▁right	-7.52629
▁anything	-7.52669
▁We	-7.54837
▁make	-7.55804
!	-7.56319
▁could	-7.56412
▁They	-7.56565
▁neither	-7.5657
▁must▁be	-7.57873
▁made	-7.58925
ve	-7.59617
▁should▁be	-7.5964
▁better	-7.60801
▁never	-7.61078
▁still	-7.62118
▁after	-7.62633
▁different	-7.63147
▁someone	-7.63793
▁a▁man	-7.64713
▁pleasure	-7.65048
▁two	-7.65908
▁nothing	-7.66976
▁at▁all	-7.67208
▁really	-7.6741
▁in▁a	-7.6755
▁the▁one	-7.67822
a	-7.68327
▁let	-7.69286
▁again	-7.69459
▁This	-7.6948
r	-7.69783
▁take	-7.69894
▁put	-7.7029
▁everything	-7.70554
es	-7.70715
),	-7.71657
▁its	-7.71688
▁each	-7.73151
▁for▁the	-7.73898
▁with▁the	-7.74225
▁life	-7.75629
▁true	-7.75871
▁the▁most	-7.76641
▁having	-7.77314
▁sort▁of	-7.77403
▁won	-7.7767
▁kind▁of	-7.77753
▁on▁the	-7.78441
▁thing	-7.78464
▁is▁not	-7.796
▁together	-7.79688
▁may	-7.80027
▁time	-7.80592
s▁and	-7.8118
:▁'	-7.81599
▁I▁am	-7.81964
▁other	-7.82494
▁what▁is	-7.82694
▁virtue	-7.85497
▁I▁said	-7.86059
▁whatever	-7.86066
▁No	-7.86143
▁if▁you	-7.87456
▁quite	-7.88591
▁When	-7.89024
▁against	-7.89657
?'	-7.90246
▁did	-7.90819
▁it▁was	-7.91327
▁say	-7.91687
▁ever	-7.91817
▁we▁must	-7.92206
▁certainly	-7.92539
▁where	-7.92944
▁he▁is	-7.93095
▁another	-7.93289
▁fine	-7.93481
▁use	-7.93893
▁we▁have	-7.93936
▁which▁is	-7.94621
▁others	-7.94629
▁Or	-7.95486
▁from▁the	-7.95495
▁get	-7.96311
▁thought	-7.9668
▁if▁we	-7.96893
▁to▁you	-7.97165
▁part	-7.97343
▁have▁been	-7.97452
▁state	-7.97733
▁way	-7.97793
▁or▁not	-7.98069
t▁it	-7.98525
▁given	-7.98745
▁indeed	-7.98947
▁the▁soul	-7.99776
▁if▁he	-8.00244
▁so▁that	-8.00292
▁As	-8.00309
▁bad	-8.00671
▁answer	-8.0082
▁to▁do	-8.00877
▁and▁that	-8.01527
eus	-8.02033
▁to▁make	-8.02486
i	-8.02513
▁of▁a	-8.02579
▁there▁are	-8.02832
▁surely	-8.02848
▁anyone	-8.03294
▁in▁fact	-8.03329
c	-8.0343
▁become	-8.03466
al	-8.0373
▁when▁he	-8.03751
▁to▁say	-8.04148
▁has▁been	-8.04786
▁these▁things	-8.04823
▁is▁a	-8.05601
▁though	-8.05686
▁those▁who	-8.05739
ness	-8.06501
▁love	-8.07413
▁It▁is	-8.07493
▁the▁other	-8.07509
▁the▁truth	-8.07884
▁Well▁then	-8.08209
▁to▁have	-8.08528
ed▁by	-8.08621
▁present	-8.08899
▁making	-8.0892
▁between	-8.09099
▁much	-8.09139
▁bring	-8.09331
▁soul	-8.0935
▁been	-8.09393
▁children	-8.09404
▁call	-8.10439
'▁('	-8.1055
▁as▁a	-8.1112
▁the▁best	-8.11275
▁that▁the	-8.12022
▁there▁is	-8.1216
▁law	-8.12466
▁off	-8.12811
▁see	-8.1319
▁name	-8.13295
▁give	-8.13424
▁yourself	-8.13737
▁nature	-8.1491
▁ones	-8.15281
▁whose	-8.15664
▁wisdom	-8.15977
▁I▁have	-8.16082
▁and▁so	-8.16099
▁away	-8.16458
▁Protagoras	-8.16524
▁just▁now	-8.16555
▁saying	-8.16566
▁the▁opposite	-8.1676
▁un	-8.16807
▁know	-8.16923
▁however	-8.17265
▁as▁well	-8.17817
▁person	-8.17841
▁Is	-8.17897
▁best	-8.17941
▁of▁them	-8.17968
▁you▁are	-8.17969
▁go	-8.17978
▁consider	-8.18213
▁about▁the	-8.18498
▁might	-8.18636
or	-8.18683
▁every	-8.18806
▁I▁was	-8.18848
▁by▁the	-8.19072
▁justice	-8.19127
▁under	-8.19449
▁keep	-8.19483
▁speech	-8.19791
▁and▁not	-8.19868
▁t	-8.20016
t▁be	-8.20077
▁enough	-8.20096
▁we▁are	-8.20194
▁this▁is	-8.20792
▁Let	-8.21112
▁power	-8.2166
▁myself	-8.21867
▁his▁own	-8.21942
▁called	-8.22344
▁doing	-8.2275
▁wise	-8.23082
▁of▁all	-8.23313
▁in▁which	-8.24535
▁among	-8.24858
b	-8.25121
▁of▁this	-8.25972
▁desire	-8.26059
▁regard	-8.26195
▁means	-8.26591
▁number	-8.26619
▁three	-8.27189
▁divine	-8.27806
▁that▁he	-8.28125
▁her	-8.28201
on	-8.28399
▁do▁you▁think	-8.28526
▁p	-8.28985
▁once	-8.29428
▁of▁course	-8.29507
▁laws	-8.29572
▁that▁we	-8.29701
▁like▁that	-8.29919
is	-8.29976
▁the▁gods	-8.30061
est	-8.30084
▁upon	-8.30327
▁question	-8.30661
▁when▁they	-8.30875
▁makes	-8.30878
▁rather▁than	-8.30929
o	-8.32142
▁city	-8.32183
▁you▁have	-8.32836
▁names	-8.32852
t▁you	-8.32943
).	-8.33086
▁just▁as	-8.33152
▁completely	-8.33165
▁try▁to	-8.33255
▁rather	-8.33755
▁parts	-8.33934
▁But▁if	-8.33976
▁the▁whole	-8.34607
▁wrong	-8.34845
at	-8.34916
▁that▁it▁is	-8.35113
▁Theaetetus	-8.35132
▁at▁least	-8.35156
▁each▁other	-8.35322
▁perhaps	-8.35386
f	-8.35398
▁that▁it	-8.35598
▁Therefore	-8.35692
▁pleasures	-8.36039
▁god	-8.3655
▁he▁was	-8.36612
▁great	-8.36621
▁point	-8.36661
▁the▁greatest	-8.3676
▁To	-8.36907
▁subject	-8.37068
s▁a	-8.37144
▁the▁good	-8.37166
▁we▁should	-8.37288
▁of▁it	-8.37327
▁already	-8.37494
▁think	-8.37696
▁to▁them	-8.37726
▁the▁same▁thing	-8.37916
▁ourselves	-8.38009
▁of▁their	-8.38032
▁that▁they	-8.38204
▁say▁that	-8.38224
▁things▁that▁are	-8.38649
▁clearly	-8.38668
▁death	-8.38674
▁correct	-8.38774
▁earlier	-8.3879
▁according	-8.38956
▁care	-8.39083
t▁know	-8.39386
▁need	-8.39391
s▁not	-8.39479
▁instead	-8.39646
▁different▁from	-8.40214
▁body	-8.40317
▁to▁me	-8.40319
▁it▁would▁be	-8.40581
t▁we	-8.40651
▁of▁his	-8.40739
▁except	-8.40805
▁I▁do	-8.40851
▁to▁us	-8.40878
▁the▁body	-8.40989
ion	-8.41045
▁yet	-8.41566
▁argument	-8.41813
▁the▁first	-8.41917
▁is▁the	-8.42647
▁that▁you	-8.42672
▁find	-8.42929
▁actually	-8.43009
▁all▁the	-8.43015
▁knowledge▁of	-8.43044
▁come	-8.43078
▁the▁city	-8.43152
▁of▁these	-8.4324
▁around	-8.4345
▁work	-8.43486
▁place	-8.43592
g	-8.43598
▁often	-8.43598
▁show	-8.43819
▁are▁not	-8.43969
▁a▁good	-8.44242
▁courage	-8.4431
▁words	-8.44672
▁I▁suppose	-8.44769
▁These	-8.44919
▁form	-8.4523
▁war	-8.45272
the	-8.4536
us	-8.45397
▁in▁order	-8.45635
▁alone	-8.45637
▁as▁well▁as	-8.4566
▁change	-8.45835
▁of▁our	-8.45909
▁Because	-8.45993
▁property	-8.46038
▁down	-8.46094
▁why	-8.4614
▁understanding	-8.46173
▁do▁you	-8.46314
able	-8.46703
▁possible	-8.46807
▁c	-8.46946
▁with▁a	-8.47193
s▁are	-8.47482
▁part▁of	-8.47674
▁simply	-8.4779
▁the▁things	-8.47827
▁if▁it	-8.47882
▁fire	-8.47953
▁my▁friend	-8.48066
in	-8.48092
▁certain	-8.48183
▁no▁one	-8.4837
▁going▁to	-8.48657
▁he▁must	-8.48774
▁less	-8.49061
▁especially	-8.49088
▁the▁others	-8.49357
▁back	-8.4939
▁On	-8.49418
▁the▁way	-8.49577
▁we▁can	-8.49674
▁anything▁else	-8.5
▁clear	-8.50207
▁other▁than	-8.50241
▁that▁I	-8.50314
▁at▁the	-8.50367
▁left	-8.50477
▁ignorance	-8.50844
▁he▁has	-8.51086
▁as▁possible	-8.51132
▁character	-8.5114
▁to▁take	-8.51266
▁reason	-8.51306
▁injustice	-8.51627
▁discussion	-8.51898
▁one▁another	-8.51983
▁money	-8.52186
▁when▁we	-8.52469
▁small	-8.52479
▁taking	-8.53075
▁sometimes	-8.53246
')	-8.53671
▁Don	-8.54024
▁How	-8.54159
▁cannot	-8.54392
▁Clinias	-8.54423
▁gods	-8.54574
▁rule	-8.54981
for▁the▁sake▁of	-8.55123
▁aren	-8.55301
▁she	-8.55694
▁came	-8.56167
▁further	-8.56224
▁Gorgias	-8.56525
▁all▁these	-8.566
▁does▁not	-8.56649
▁follow	-8.56893
▁the▁nature▁of	-8.56922
▁speak	-8.57191
▁for▁you	-8.57572
▁practice	-8.57583
▁like▁this	-8.576
▁speaking	-8.57763
▁to▁him	-8.57795
▁There	-8.5809
▁unjust	-8.58342
▁in▁this▁way	-8.58344
▁b	-8.5841
▁they▁have	-8.58422
▁namely	-8.58966
▁judgment	-8.59345
▁This▁is	-8.59624
▁can▁be	-8.59838
▁hold	-8.60117
▁skill	-8.6014
▁impossible	-8.60226
▁giving	-8.60234
▁education	-8.60336
▁who▁are	-8.60399
▁and▁then	-8.60726
▁And▁if	-8.60895
▁truth	-8.60996
▁when▁you	-8.61005
▁the▁name	-8.61081
▁what▁we	-8.6121
▁if▁they	-8.61478
▁but▁not	-8.61502
▁sir	-8.6157
▁that▁which▁is	-8.61644
▁the▁state	-8.61712
▁suppose	-8.61768
▁the▁god	-8.61931
▁By	-8.62309
▁Alcibiades	-8.6231
▁understand	-8.62347
l	-8.62421
▁free	-8.62502
▁truly	-8.62622
▁he▁would	-8.62637
▁re	-8.62737
▁pain	-8.6276
▁heard	-8.62907
▁long	-8.63008
▁fear	-8.63437
I	-8.63569
▁in▁the▁case	-8.64068
▁a▁single	-8.64396
▁the▁other▁hand	-8.64398
▁to▁give	-8.64447
▁other▁things	-8.64508
▁he▁will	-8.64762
▁help	-8.6481
▁is▁that	-8.64858
▁everyone	-8.6502
▁had▁been	-8.65024
▁Homer	-8.65033
▁because▁they	-8.65188
▁by▁nature	-8.6522
▁their▁own	-8.65348
▁such▁a	-8.65454
▁of▁what	-8.65678
▁next	-8.65683
▁I▁mean	-8.66211
▁condition	-8.66311
as	-8.66313
▁water	-8.66365
ers	-8.66409
▁because▁of	-8.66742
p	-8.66814
▁the▁case	-8.66829
▁later	-8.66879
▁we▁were	-8.67089
▁in▁this	-8.67182
▁matter	-8.67312
▁to▁see	-8.67346
▁friends	-8.67351
▁do▁not	-8.67383
▁order	-8.67486
▁whenever	-8.6749
▁Phaedrus	-8.6787
▁and▁the▁other	-8.68445
▁And▁what	-8.68478
▁S	-8.68497
▁Love	-8.68878
an	-8.68973
▁hard	-8.68989
▁Hippias	-8.69225
▁those▁who▁are	-8.69411
▁able▁to	-8.69732
▁experience	-8.69789
▁feel	-8.6995
▁natural	-8.70002
▁although	-8.70101
▁similar	-8.70794
▁any▁other	-8.70829
u	-8.70883
▁of▁the▁soul	-8.70939
▁what▁you	-8.71046
▁share	-8.71086
▁the▁man	-8.71196
▁happy	-8.7122
▁philosophy	-8.71438
▁account	-8.71581
▁kind	-8.71595
▁far	-8.71628
▁and▁I	-8.71637
ic	-8.71719
▁speeches	-8.71766
▁day	-8.71926
▁comes	-8.72073
▁the▁argument	-8.72133
▁complete	-8.72363
▁anyone▁who	-8.72556
▁who▁is	-8.72654
▁to▁it	-8.72919
▁praise	-8.73006
▁constitution	-8.73086
▁human	-8.7327
▁for▁it	-8.73456
s▁the	-8.74052
▁benefit	-8.74194
▁established	-8.74204
▁necessary	-8.74257
▁easy	-8.7431
▁they▁were	-8.74351
ll▁be	-8.74427
▁about▁it	-8.74628
▁the▁man▁who	-8.74812
▁sense	-8.74813
▁of▁being	-8.7486
▁opinion	-8.74957
▁seem	-8.75058
▁naturally	-8.75102
▁it▁seems	-8.75138
▁you▁will	-8.75348
▁And▁so	-8.7544
▁I▁would	-8.75882
▁young	-8.75933
▁people▁who	-8.76325
▁friend	-8.76506
▁therefore	-8.76569
▁trying	-8.76667
▁entirely	-8.7669
▁the▁right	-8.76794
en	-8.76796
▁various	-8.76845
▁beauty	-8.7685
▁judge	-8.76929
▁come▁to▁be	-8.7705
ar	-8.77102
▁needs	-8.77426
▁evil	-8.77449
▁whole	-8.77481
▁something▁else	-8.77781
▁wealth	-8.77918
▁the▁following	-8.78027
▁we▁shall	-8.78058
▁correctly	-8.78156
▁second	-8.78304
▁found	-8.78438
▁absolutely	-8.78941
▁difficult	-8.7905
▁done	-8.79176
▁act	-8.79268
▁whereas	-8.79351
▁C	-8.79358
▁provided	-8.79381
▁lack	-8.79407
▁someone▁who	-8.79515
▁the▁question	-8.7957
se	-8.79729
▁cause	-8.80223
▁case	-8.8027
▁four	-8.80301
▁position	-8.80343
t▁he	-8.80451
▁takes	-8.80507
▁let▁us	-8.80552
ir	-8.8059
▁beautiful	-8.80645
▁one▁thing	-8.80772
▁accept	-8.80777
▁cities	-8.80792
▁and▁a	-8.80799
▁questions	-8.80866
▁appropriate	-8.80909
▁matters	-8.80947
▁to▁get	-8.81318
▁for▁us	-8.81411
▁allow	-8.8147
▁Do▁you	-8.81478
▁women	-8.81582
▁if▁it▁is	-8.81639
ing▁the	-8.81644
▁live	-8.81785
▁whom	-8.81804
ting	-8.81977
▁extreme	-8.82262
▁until	-8.82269
▁look	-8.82399
▁one▁of▁the	-8.82439
▁agree	-8.82571
▁may▁be	-8.82704
▁of▁knowledge	-8.82707
▁asked	-8.82807
▁set	-8.82989
▁you▁know	-8.83403
▁claim	-8.83584
▁And▁is	-8.83594
▁d	-8.84168
▁old	-8.84169
▁mind	-8.8424
at▁the▁same▁time	-8.84286
▁However	-8.84718
▁it▁would	-8.84923
▁is▁it	-8.84982
▁and▁what	-8.85074
▁Are	-8.85212
s▁to	-8.85231
▁useful	-8.85431
▁f	-8.85651
st	-8.85797
▁all▁this	-8.85836
▁in▁the▁same▁way	-8.85864
to	-8.86204
▁got	-8.86279
less	-8.86306
▁desires	-8.86485
▁grasp	-8.86521
▁hear	-8.86654
▁is▁this	-8.86699
▁took	-8.86724
▁sound	-8.86737
▁produce	-8.86753
▁to▁know	-8.86767
▁he▁should	-8.86899
▁in▁our	-8.87064
▁age	-8.87074
▁equal	-8.87167
▁Does	-8.87347
▁to▁learn	-8.87453
▁medicine	-8.87492
▁Indeed	-8.87536
▁honor	-8.87729
▁they▁must	-8.87775
▁exactly	-8.87806
▁health	-8.88034
▁arguments	-8.88101
▁be▁able▁to	-8.88463
▁All	-8.88466
▁That▁is	-8.88489
▁would▁have	-8.88565
▁if▁I	-8.8868
▁learn	-8.88711
▁light	-8.88769
▁the▁one▁who	-8.88788
▁large	-8.8898
▁knowing	-8.89051
▁believe▁that	-8.89064
▁as▁we	-8.89151
▁probably	-8.89335
k	-8.89456
▁the▁law	-8.89486
▁earth	-8.89913
▁in▁general	-8.90099
▁If▁you	-8.90109
ing▁them	-8.90198
▁What▁about	-8.90223
▁greater	-8.90226
▁animals	-8.90261
▁possess	-8.9038
▁at▁any▁rate	-8.9045
▁not▁to	-8.90597
▁bodies	-8.90616
and	-8.90717
▁round	-8.90815
▁easily	-8.90906
▁I▁can	-8.91056
▁as▁the	-8.91093
▁of▁which	-8.91146
▁leave	-8.91165
▁little	-8.91174
▁expertise	-8.91193
▁for▁a	-8.91216
▁within	-8.9129
▁the▁second	-8.91407
▁learning	-8.91458
▁to▁a	-8.91603
▁One	-8.91721
▁taken	-8.91975
nd	-8.92026
▁towards	-8.92347
▁seen	-8.92449
▁harm	-8.92651
▁ought▁to	-8.92669
ed▁to	-8.92768
▁the▁same▁as	-8.92913
▁public	-8.93075
▁each▁of▁them	-8.93316
▁food	-8.93451
▁art	-8.93727
▁no▁longer	-8.93878
▁w	-8.9392
▁Would	-8.93949
▁a▁thing	-8.93961
▁there▁is▁no	-8.93974
▁because▁he	-8.94
▁of▁the▁gods	-8.94005
▁that▁are	-8.94234
▁the▁point	-8.94365
▁full	-8.94452
▁Greek	-8.94453
▁Critias	-8.94479
▁ridiculous	-8.94521
▁motion	-8.94629
▁turn	-8.94823
▁he▁does	-8.94962
▁is▁true	-8.95007
▁the▁thing	-8.95224
▁when▁it	-8.95264
▁some▁other	-8.95278
▁using	-8.95309
ur	-8.95414
▁he▁had	-8.95642
▁for▁example	-8.95728
▁which▁are	-8.95757
▁its▁own	-8.95799
▁things▁are	-8.95845
▁God	-8.95879
▁says	-8.96134
▁for▁them	-8.96187
▁properly	-8.96187
▁clever	-8.96291
▁I▁shall	-8.9645
▁end	-8.96738
▁mere	-8.96861
▁serious	-8.97163
▁high	-8.97663
▁terms	-8.97685
▁force	-8.97961
▁tell	-8.98037
▁you▁were	-8.9817
▁gold	-8.98178
▁and▁be	-8.98265
▁in▁the▁city	-8.98498
▁shall▁we	-8.98509
▁it▁will▁be	-8.98542
▁of▁your	-8.98736
▁the▁beginning	-8.98755
▁of▁the▁body	-8.98965
▁and▁also	-8.98992
▁friendship	-8.99009
▁pure	-8.99254
▁in▁turn	-8.99403
▁My	-8.99403
▁the▁majority	-8.99468
▁study	-8.99514
▁Parmenides	-8.99633
▁First	-8.99706
▁Timaeus	-8.99734
▁have▁a	-8.9976
▁conduct	-8.9979
▁to▁speak	-9.00021
▁value	-9.00106
s▁in	-9.0018
▁Tell▁me	-9.00202
ive	-9.00313
▁run	-9.00399
▁private	-9.00406
▁third	-9.00425
ity	-9.00446
▁conversation	-9.00468
▁I▁will	-9.00524
▁a▁person	-9.00624
▁goes	-9.00801
▁to▁live	-9.00821
▁his▁father	-9.01096
▁one▁of	-9.01169
le	-9.01191
▁business	-9.01265
▁relation	-9.01421
▁sort▁of▁thing	-9.0155
ies	-9.01582
▁training	-9.01609
▁as▁much	-9.01655
▁into▁the	-9.01753
▁fall	-9.01771
▁superior	-9.01777
▁seems	-9.01798
▁a▁god	-9.01813
▁In▁fact	-9.01957
▁that▁they▁are	-9.01997
▁Let▁us	-9.02069
▁unless	-9.02072
▁Suppose	-9.02101
▁discover	-9.02154
▁among▁the	-9.0216
▁Glaucon	-9.02313
▁rules	-9.02377
▁land	-9.02439
▁near	-9.02464
▁Yet	-9.02485
▁learned	-9.02644
▁agreed	-9.02758
▁who▁has	-9.02811
▁such▁things	-9.03006
▁reasonable	-9.03062
▁as▁a▁whole	-9.03282
▁so▁far	-9.03319
▁control	-9.03331
▁come▁to	-9.03467
▁prove	-9.03473
▁went	-9.03551
▁gave	-9.03708
▁you▁say	-9.03881
▁cut	-9.04
▁necessarily	-9.04059
▁you▁would	-9.04086
▁birth	-9.04114
▁agree▁that	-9.04242
▁Perhaps	-9.04437
▁the▁cause	-9.04443
▁concern	-9.04447
▁for▁me	-9.04493
▁you▁must	-9.04597
ous	-9.04629
▁Do▁you▁think	-9.04641
s▁that	-9.04726
▁worse	-9.04733
▁the▁art	-9.04821
▁when▁I	-9.04856
▁:	-9.04883
▁trust	-9.04941
▁courageous	-9.04953
▁subjects	-9.04991
▁they▁do	-9.05031
d▁be	-9.0513
▁unable	-9.05168
▁to▁which	-9.05208
▁enjoy	-9.05218
▁mean	-9.05236
▁the▁latter	-9.05243
▁please	-9.05258
▁willing▁to	-9.05271
▁of▁us	-9.05435
▁Dion	-9.05559
▁such▁as	-9.05562
▁precisely	-9.05603
▁particular	-9.05716
▁P	-9.05729
▁temperance	-9.05898
ing▁it	-9.05935
▁because▁it	-9.06035
▁th	-9.0611
▁apply	-9.06237
▁concerned▁with	-9.0627
▁shape	-9.06272
▁We▁must	-9.06332
▁one▁of▁them	-9.06357
▁contrary	-9.0637
▁Euthydemus	-9.06383
▁Crito	-9.0644
▁disease	-9.06494
▁a▁city	-9.06522
▁slaves	-9.06778
▁separate	-9.06778
▁but▁also	-9.06794
▁same	-9.06817
▁what▁he	-9.06861
▁living	-9.06917
▁the▁very	-9.06983
▁shameful	-9.0705
▁citizens	-9.07078
▁exist	-9.07216
▁told	-9.07302
▁comes▁to▁be	-9.07328
▁pay	-9.07362
▁pleasant	-9.07482
▁above	-9.07582
▁eager	-9.07602
▁held	-9.07654
▁start	-9.07657
▁fellow	-9.07698
th	-9.07717
ment	-9.07762
▁E	-9.07811
▁did▁not	-9.07964
▁move	-9.08152
▁father	-9.08173
▁profit	-9.08216
▁think▁that	-9.08365
▁knows	-9.08378
▁if▁someone	-9.08434
▁to▁hear	-9.08439
it	-9.0846
▁new	-9.08471
▁what▁it▁is	-9.08486
▁seeing	-9.08575
▁poets	-9.08728
▁hand	-9.08794
▁task	-9.09242
▁do▁you▁mean	-9.09336
▁But▁what	-9.09359
▁fit	-9.09363
▁it▁has	-9.09719
▁with▁him	-9.09746
▁account▁of	-9.09906
▁with▁me	-9.0998
▁sight	-9.10034
▁forms	-9.10088
▁with▁you	-9.10101
▁class	-9.10107
▁cases	-9.10276
▁explain	-9.10525
he	-9.10583
▁de	-9.10627
▁and▁all	-9.10631
▁that▁this	-9.10835
▁good▁things	-9.10921
▁rich	-9.11188
▁in▁addition	-9.11263
▁talking▁about	-9.1127
▁like▁a	-9.11472
▁air	-9.11596
▁as▁you	-9.11727
▁equally	-9.11843
▁in▁it	-9.12062
▁son	-9.12103
▁used	-9.12128
▁play	-9.12153
▁will▁not	-9.12216
▁the▁legislator	-9.1225
▁investigation	-9.12395
▁unlike	-9.12399
▁but▁that	-9.12498
▁gives	-9.1256
▁general	-9.12627
▁could▁be	-9.12647
▁type	-9.12665
▁the▁person▁who	-9.12734
▁physical	-9.1282
▁somehow	-9.12855
▁other▁people	-9.12888
▁proper	-9.12984
▁otherwise	-9.13007
▁to▁this	-9.13137
▁drink	-9.13172
▁your▁own	-9.132
▁soon	-9.13258
▁advice	-9.13271
▁remember	-9.13319
▁moderate	-9.13431
▁to▁say▁that	-9.13465
▁Nor	-9.13472
▁side	-9.13532
▁important	-9.13539
▁altogether	-9.13629
▁going	-9.13712
ll▁say	-9.14089
▁go▁on	-9.14148
▁the▁power	-9.14161
▁it▁will	-9.1417
▁kinds	-9.14173
▁the▁Athenians	-9.14196
▁human▁beings	-9.14244
▁I▁know	-9.14282
▁hardly	-9.14312
▁a▁man▁who	-9.14565
▁it▁is▁not	-9.14598
▁older	-9.14697
▁obviously	-9.14727
▁I▁think▁that	-9.14732
▁line	-9.14884
▁Not	-9.15044
▁remain	-9.15152
▁these▁matters	-9.15156
▁rest	-9.15166
t▁they	-9.15199
▁escape	-9.15201
▁on▁a	-9.15211
▁I▁could	-9.15228
▁thus	-9.1523
▁a▁friend	-9.15435
▁most▁important	-9.15499
▁and▁he	-9.15503
▁respect	-9.1568
▁music	-9.15821
ē	-9.15844
▁intelligence	-9.15881
▁of▁its	-9.15907
▁causes	-9.15908
▁way▁of	-9.15913
▁o	-9.15916
s▁that▁are	-9.15933
▁attempt	-9.16035
▁about▁what	-9.16283
▁you▁can	-9.16457
▁common	-9.1662
▁letters	-9.16739
▁and▁they	-9.16903
▁even▁though	-9.17024
▁it▁does	-9.17026
▁written	-9.17226
▁view	-9.17376
▁craft	-9.17537
▁likely	-9.17635
▁all▁things	-9.17702
s▁no	-9.17738
▁the▁matter	-9.17819
▁judges	-9.17897
▁a▁lover	-9.18005
▁we▁call	-9.1806
ce	-9.18117
▁master	-9.18245
▁a▁little	-9.18441
▁that▁way	-9.18881
▁color	-9.18922
▁to▁become	-9.18922
▁they▁would	-9.18974
▁i	-9.18984
▁a▁great	-9.19034
ia	-9.19074
▁manner	-9.19247
▁talk	-9.1934
▁teachers	-9.19342
▁we▁say	-9.19391
▁believe	-9.19518
d▁by	-9.19736
▁suffer	-9.19804
▁false	-9.20002
▁everything▁else	-9.20085
▁purpose	-9.2017
▁you▁call	-9.2017
▁for▁him	-9.20172
▁healthy	-9.20175
▁the▁son	-9.20192
ed▁in	-9.20239
▁they▁had	-9.203
▁they▁should	-9.20429
▁even▁if	-9.20443
▁thinking	-9.20446
▁smaller	-9.20564
▁with▁them	-9.20617
▁happens	-9.2062
▁since▁it	-9.20843
▁Our	-9.20858
▁and▁other	-9.20912
▁spend	-9.21123
▁tell▁me	-9.21128
▁Is▁it	-9.21164
▁noble	-9.21427
▁advantage	-9.21441
▁talking	-9.21561
▁do▁so	-9.21603
▁course	-9.21719
▁enemies	-9.21784
▁anyone▁else	-9.21922
▁remains	-9.2193
▁flow	-9.21977
▁is▁to	-9.22047
▁as▁if	-9.22156
▁is▁to▁be	-9.22164
▁you▁see	-9.22182
▁you▁should	-9.22304
▁outside	-9.22454
▁with▁each▁other	-9.22475
▁action	-9.22523
▁what▁I	-9.22663
▁about▁this	-9.22709
▁turned	-9.22717
▁the▁rest	-9.22721
▁Callicles	-9.22727
▁Meno	-9.22734
▁authority	-9.22771
▁I▁say	-9.2287
▁belongs▁to	-9.23321
▁horses	-9.23409
s▁him	-9.23611
ever	-9.23638
▁particularly	-9.2366
▁Why	-9.23712
▁you▁mean	-9.23859
▁opposite	-9.23876
▁sufficient	-9.23903
▁difference	-9.23956
if	-9.24035
▁saw	-9.24069
▁Further	-9.24096
▁a▁lot	-9.24287
▁add	-9.243
▁half	-9.24307
▁expect	-9.24339
▁capable	-9.24351
▁of▁justice	-9.24535
▁was▁a	-9.24648
.)	-9.24662
▁short	-9.24671
▁appear	-9.24671
▁or▁any▁other	-9.24682
▁stand	-9.24701
▁Dionysius	-9.24764
▁admirable	-9.24827
▁our▁discussion	-9.24836
▁the▁laws	-9.24841
▁avoid	-9.25046
▁they▁will	-9.25213
▁perception	-9.2527
▁ask	-9.25341
▁And▁when	-9.25342
▁willing	-9.25366
▁Agathon	-9.25446
▁Theodorus	-9.25491
▁Cratylus	-9.25494
▁Thrasymachus	-9.25532
▁provide	-9.25622
▁inside	-9.25661
▁lead	-9.25759
getting	-9.25782
▁ill	-9.2607
▁length	-9.26076
▁about▁them	-9.26118
▁method	-9.26171
▁happened	-9.26191
▁becomes	-9.26214
▁becoming	-9.26299
▁lives	-9.26372
▁examine	-9.26558
▁memory	-9.26586
▁But▁when	-9.26841
▁home	-9.2685
one	-9.27358
▁much▁more	-9.27436
▁of▁things	-9.27456
▁guardians	-9.27477
▁I▁believe	-9.27488
▁composed	-9.27723
▁someone▁else	-9.27798
▁But▁I	-9.2781
▁a▁state	-9.2788
▁seem▁to▁be	-9.27943
▁actual	-9.28112
▁five	-9.28187
▁these▁people	-9.28191
▁have▁no	-9.28212
s▁them	-9.28253
▁Laches	-9.28293
▁a▁slave	-9.28379
▁self	-9.28392
▁total	-9.2859
ed▁by▁the	-9.28738
▁hearing	-9.28859
▁direction	-9.28874
▁agreement	-9.28888
▁Here	-9.29138
▁to▁use	-9.29254
▁neglect	-9.29276
▁But▁now	-9.29338
▁a▁doctor	-9.29443
▁these▁are	-9.29444
▁dead	-9.2953
▁sort	-9.29579
▁stories	-9.29696
▁pre	-9.29759
▁gentlemen	-9.29772
▁teaching	-9.2979
▁fight	-9.29877
▁shall	-9.29916
▁notice	-9.29953
▁Of▁course	-9.29993
▁and▁others	-9.30035
▁toward	-9.30267
▁came▁to	-9.30309
▁together▁with	-9.3043
▁After	-9.30913
▁statement	-9.30918
▁sing	-9.30943
▁in▁the▁same	-9.3098
▁wicked	-9.31049
▁worth	-9.31082
▁even▁more	-9.31204
▁as▁they	-9.31211
▁Some	-9.31608
▁boys	-9.31695
▁the▁people	-9.31743
▁lovers	-9.318
▁inferior	-9.31907
▁actions	-9.31991
▁m	-9.32041
ent	-9.3217
▁acquire	-9.3224
▁story	-9.32242
▁has▁a	-9.3225
▁search	-9.32253
▁assume	-9.32274
▁to▁show	-9.32396
▁which▁we	-9.32453
▁Come	-9.32553
▁Prodicus	-9.32603
▁reputation	-9.32711
▁powerful	-9.32759
▁size	-9.32807
▁coming▁to▁be	-9.32939
▁acquired	-9.32979
▁measure	-9.33019
▁by▁a	-9.33115
▁are▁you	-9.33148
▁seems▁to▁be	-9.33203
▁to▁go	-9.33233
▁mixed	-9.33274
▁for▁all	-9.33454
▁spirit	-9.33565
▁beneficial	-9.33595
▁times	-9.33651
▁for▁this	-9.33652
▁to▁do▁so	-9.33685
▁co	-9.33713
▁all▁that	-9.33801
▁and▁said	-9.33816
▁the▁more	-9.33865
ation	-9.33889
▁my▁own	-9.33897
▁lost	-9.33903
▁ancient	-9.3397
▁the▁fact▁that	-9.34085
▁to▁his	-9.3423
ut	-9.34378
▁Since	-9.34805
▁to▁avoid	-9.34945
▁I▁must	-9.34981
▁is▁just	-9.35016
▁I▁had	-9.35108
s▁it	-9.35114
▁circumstances	-9.35116
▁choice	-9.35154
▁If▁he	-9.35301
▁trouble	-9.35332
▁in▁the▁soul	-9.35409
▁because▁it▁is	-9.35436
▁style	-9.35547
ust	-9.35552
▁wish	-9.35571
▁possesses	-9.35601
▁to▁their	-9.35618
▁to▁answer	-9.35622
▁last	-9.35636
▁would▁you	-9.35653
▁up▁to	-9.3566
▁tell▁us	-9.35784
▁activities	-9.35788
▁states	-9.3579
▁Do	-9.35843
▁souls	-9.35873
▁immediately	-9.35882
▁It▁was	-9.35937
▁the▁subject	-9.35954
▁besides	-9.36017
▁group	-9.36045
▁when▁they▁are	-9.36148
▁rightly	-9.36168
▁dis	-9.362
▁that▁there▁is	-9.36245
▁you▁think	-9.36265
▁of▁any	-9.36334
▁of▁virtue	-9.36361
▁suppose▁that	-9.36469
▁treat	-9.36581
▁prepared	-9.36586
▁perfect	-9.36591
▁poor	-9.36613
▁look▁at	-9.36748
▁not▁even	-9.36811
▁attack	-9.36816
▁cannot▁be	-9.36913
▁throw	-9.36919
▁as▁I	-9.36942
▁year	-9.37058
▁Surely	-9.37085
▁the▁boy	-9.37173
▁freedom	-9.3727
▁some▁people	-9.37296
▁h	-9.37311
▁Philebus	-9.37351
▁Dionysodorus	-9.37351
▁anyway	-9.37375
▁produced	-9.37404
▁not▁yet	-9.37463
h	-9.37536
▁word	-9.37549
▁in▁its	-9.37564
▁express	-9.37583
▁what▁you▁say	-9.37751
▁Can	-9.38011
▁in▁all	-9.38317
▁to▁understand	-9.38345
▁individual	-9.38375
ary	-9.38477
▁r	-9.38478
▁might▁be	-9.38504
▁taught	-9.38703
▁ashamed	-9.38736
▁punishment	-9.38759
▁the▁citizens	-9.3878
▁I▁think▁you	-9.3889
▁And▁yet	-9.38896
▁difficulty	-9.3906
▁born	-9.39126
▁adequately	-9.39137
▁is▁what	-9.39185
▁face	-9.392
▁family	-9.39263
▁who▁have	-9.39331
m▁not	-9.39363
▁that▁this▁is	-9.39455
▁job	-9.39488
▁along▁with	-9.39508
ve▁been	-9.39739
▁following	-9.39766
▁basis	-9.39773
▁all▁those	-9.39776
▁decide	-9.39847
▁amount	-9.39874
▁telling	-9.39973
▁beginning	-9.40033
▁or▁a	-9.40152
▁want▁to	-9.40158
▁world	-9.40162
▁mentioned	-9.40162
▁result	-9.40188
▁It▁seems	-9.40338
▁differ	-9.4034
▁convinced	-9.40386
▁Hence	-9.40553
▁knew	-9.40555
▁worthless	-9.40612
▁apparently	-9.40626
▁sent	-9.40631
▁to▁call	-9.4065
▁turning	-9.40661
▁wonderful	-9.40758
▁citizen	-9.40761
▁but▁I	-9.4079
▁l	-9.40805
▁from▁them	-9.40811
ed▁with	-9.40933
s▁unjust	-9.40978
▁heaven	-9.41073
man	-9.41155
▁that▁which	-9.41284
▁to▁what	-9.41308
▁the▁earth	-9.41319
▁due	-9.41333
▁political	-9.41441
▁stop	-9.41475
▁so▁as	-9.41484
▁alike	-9.41516
▁know▁what	-9.4172
s▁why	-9.418
▁choose	-9.41834
▁doctors	-9.41912
▁moving	-9.41947
▁With	-9.42018
▁an▁account	-9.42042
▁send	-9.42048
▁in▁accord	-9.42177
▁Polus	-9.4219
▁apart	-9.42206
▁known	-9.42257
▁recall	-9.42283
Guardians▁of▁the	-9.42387
ter	-9.42399
▁looking	-9.42435
▁philosophers	-9.42467
▁to▁come	-9.42652
▁as▁to	-9.42677
▁in▁your	-9.42683
▁a▁soul	-9.42702
▁There▁are	-9.42723
▁strong	-9.42744
t▁think	-9.42824
▁belief	-9.43083
▁poet	-9.43164
▁tried	-9.43248
▁saying▁that	-9.43264
▁received	-9.43454
▁good▁men	-9.43459
▁Accepting▁t	-9.43464
▁whether▁it	-9.43603
▁those▁things	-9.43745
▁if▁anyone	-9.43771
▁treatment	-9.438
▁points	-9.43817
▁excellence	-9.43865
▁the▁former	-9.43875
▁asking	-9.43949
▁beyond	-9.43967
▁king	-9.43977
▁to▁follow	-9.44035
▁Even	-9.44084
▁immortal	-9.44335
▁perform	-9.44359
▁proceed	-9.44362
▁reach	-9.44377
▁something▁that	-9.44405
▁slave	-9.44429
▁a▁better	-9.44464
▁the▁entire	-9.44465
▁was▁not	-9.4452
▁needed	-9.44521
▁them▁all	-9.44635
▁began	-9.44667
▁physical▁train	-9.44676
▁of▁those▁who	-9.44724
▁of▁this▁sort	-9.44904
▁generation	-9.44943
▁in▁any▁way	-9.44976
▁the▁discussion	-9.44985
▁so▁much	-9.45047
▁with▁it	-9.45158
▁attention	-9.45162
▁peace	-9.45259
▁oratory	-9.45316
▁visible	-9.4536
il	-9.45392
▁through▁the	-9.45415
▁penalty	-9.45431
▁today	-9.45468
▁quickly	-9.45475
▁Ctesippus	-9.45496
▁intelligent	-9.45556
▁Thus	-9.45558
▁Consider	-9.45561
▁pursue	-9.45572
▁voluntarily	-9.45592
▁are▁the	-9.45723
▁filled	-9.45747
▁divide	-9.45767
▁years	-9.4586
▁the▁third	-9.45906
▁none	-9.45942
.▁.	-9.46008
▁famous	-9.46047
▁said▁that	-9.46066
▁double	-9.46076
▁You▁see	-9.46176
▁perfectly	-9.46213
▁thinks	-9.46215
▁when▁the	-9.46233
rs	-9.46308
▁shown	-9.46352
s▁just	-9.46525
▁all▁of▁them	-9.46715
▁of▁life	-9.46732
▁science	-9.46741
▁qualities	-9.46927
▁to▁ask	-9.46929
▁throughout	-9.46939
▁I▁thought	-9.46982
▁M	-9.47043
▁Phaedo	-9.47059
▁in▁any	-9.47212
▁Charmides	-9.47276
▁die	-9.47279
▁ways	-9.47287
▁badly	-9.47334
▁numbers	-9.47497
▁seriously	-9.47626
▁or▁else	-9.47643
▁Your	-9.47655
▁call▁it	-9.47701
▁these▁two	-9.47787
▁effort	-9.47842
▁coming	-9.47843
▁of▁each	-9.47872
▁each▁of▁the	-9.47914
um	-9.47951
▁spoken	-9.47969
Socrates	-9.48084
▁the▁one▁that	-9.48174
▁distinguished	-9.48195
▁does▁it	-9.48197
▁open	-9.482
▁this▁way	-9.48215
▁chance	-9.48227
▁produces	-9.48256
▁F	-9.48347
▁and▁its	-9.48428
t▁this	-9.48442
▁stay	-9.48444
▁mortal	-9.48506
▁and▁his	-9.48579
▁possession	-9.48706
▁this▁one	-9.48798
▁fails	-9.48822
▁men▁who	-9.48934
▁we▁have▁to	-9.48952
▁want	-9.48966
▁capacity	-9.49029
▁back▁to	-9.49035
▁somewhere	-9.49049
▁part▁of▁the	-9.49071
A	-9.49166
▁by▁which	-9.49185
▁happiness	-9.49188
▁whoever	-9.4919
▁of▁the▁other	-9.4922
▁he▁can	-9.49231
▁adopt	-9.49246
▁pains	-9.49352
▁st	-9.4939
▁future	-9.49403
▁able	-9.49444
▁and▁you	-9.4945
s▁of▁the	-9.49597
▁all▁the▁other	-9.4962
▁of▁pleasure	-9.49803
▁prevent	-9.49854
▁real	-9.49894
▁movement	-9.49964
▁who▁was	-9.50092
▁few	-9.50106
▁reached	-9.50115
▁simple	-9.50161
▁the▁divine	-9.50167
▁moderation	-9.50298
▁obvious	-9.504
▁those▁of	-9.5041
▁ships	-9.50437
▁along	-9.50451
▁lover	-9.50458
▁favor	-9.50513
▁watch	-9.50589
▁the▁sun	-9.50711
▁and▁if	-9.5072
ro	-9.50804
▁exercise	-9.50821
▁should▁we	-9.50833
▁Lysis	-9.50842
▁also▁be	-9.50849
▁philosophical	-9.50883
ing▁a	-9.50887
▁led	-9.50933
▁wants▁to	-9.50962
▁divided	-9.5098
ant	-9.50995
▁at▁a	-9.51011
▁uses	-9.51032
▁useless	-9.51053
▁begin	-9.51186
▁sons	-9.51204
▁persuade	-9.51219
▁ruling	-9.51282
▁fighting	-9.51316
▁reply	-9.51459
s▁us	-9.51469
▁turn▁out▁to▁be	-9.51611
▁calling	-9.51848
▁evils	-9.51862
▁strange	-9.51981
▁him▁to	-9.52083
▁like▁the	-9.52101
▁as▁he	-9.5211
▁that▁has	-9.52116
▁mention	-9.52141
▁child	-9.52144
▁I▁did	-9.52254
▁past	-9.52287
▁what▁they	-9.52416
▁as▁it▁is	-9.52426
▁cold	-9.52443
▁investigate	-9.52453
▁in▁them	-9.52556
▁Again	-9.52624
▁render	-9.52641
▁situation	-9.52659
▁His	-9.52667
▁to▁whom	-9.52725
▁or▁some▁other	-9.52737
▁to▁produce	-9.52796
▁are▁we	-9.52821
▁because▁I	-9.52912
ch	-9.52945
▁harmony	-9.52984
▁it▁seems▁to▁me	-9.531
▁doubt	-9.53159
▁very▁much	-9.53202
▁office	-9.53226
▁educated	-9.53267
▁by▁itself	-9.5329
▁close	-9.5337
▁in▁every▁way	-9.53392
▁many▁other	-9.53444
▁to▁think	-9.53452
▁military	-9.53507
▁hands	-9.53513
▁do▁it	-9.53563
▁to▁be▁a	-9.53606
▁company	-9.53634
ate	-9.53643
▁way▁of▁life	-9.53702
▁ignorant	-9.53755
▁lived	-9.5385
▁Have	-9.53853
▁the▁ones▁who	-9.53912
▁places	-9.53943
▁deny	-9.54012
▁this▁point	-9.54045
▁of▁people	-9.54126
▁They▁are	-9.54134
▁killed	-9.54206
t▁understand	-9.5436
▁g	-9.54412
▁those▁that	-9.54442
▁into▁a	-9.54466
▁the▁same▁things	-9.54475
▁support	-9.54484
▁a▁moment▁ago	-9.54486
▁Still	-9.54487
▁persuaded	-9.54518
▁destroyed	-9.54561
▁bear	-9.54589
os	-9.54632
▁results	-9.54672
▁the▁finest	-9.5476
▁our▁own	-9.54803
▁would▁not	-9.54844
▁single	-9.54849
▁to▁our	-9.54938
▁of▁men	-9.54968
▁in▁the▁future	-9.55074
▁if▁they▁are	-9.55109
▁became	-9.55154
▁discovered	-9.55262
▁but▁the	-9.55271
▁fill	-9.55341
▁realize▁that	-9.55361
t▁even	-9.55364
▁process	-9.55398
▁straight	-9.5563
▁You▁are	-9.55638
▁grow	-9.55676
▁exists	-9.557
▁members	-9.55703
▁rulers	-9.55716
▁them▁to	-9.55824
kept	-9.55891
▁country	-9.55967
▁seek	-9.56133
▁follows	-9.56155
▁defense	-9.5618
▁hunting	-9.56202
▁foolish	-9.56246
▁in▁that	-9.56253
▁strength	-9.56294
▁effect	-9.56295
▁if▁the	-9.56319
▁and▁how	-9.56322
▁Moreover	-9.56372
▁Pericles	-9.56373
▁in▁each▁case	-9.56379
▁Take	-9.56401
▁distinct	-9.56435
▁finally	-9.56498
▁possessed	-9.56529
▁I▁should	-9.56579
▁in▁charge	-9.56646
▁anger	-9.56818
▁Athens	-9.56926
▁con	-9.56929
▁generally	-9.56989
▁instance	-9.57003
▁house	-9.57118
▁draw	-9.57197
▁and▁when	-9.5725
more	-9.57321
▁assign	-9.57372
▁our▁argument	-9.57462
▁legal	-9.57482
▁idea	-9.57497
▁ruled	-9.57539
▁terrible	-9.57599
▁appearance	-9.57602
▁ground	-9.57619
▁stupid	-9.57647
▁we▁had	-9.57656
▁the▁children	-9.57718
▁living▁things	-9.57779
▁considered	-9.57868
▁If▁we	-9.57877
▁legislator	-9.5792
▁as▁I▁said	-9.57926
▁count	-9.57936
▁excellent	-9.57989
▁pass	-9.58024
▁as▁far▁a	-9.58225
▁keeping	-9.58281
▁leaving	-9.58295
▁Euthyphro	-9.58295
▁Minos	-9.58296
▁explanation	-9.58314
▁fitting	-9.58323
▁sacred	-9.58329
▁twice	-9.58338
▁bound	-9.58404
▁At	-9.58411
w	-9.58419
▁ought▁to▁be	-9.58526
▁thought▁that	-9.58531
li	-9.58534
▁justice▁and	-9.58552
ist	-9.58555
▁And▁that	-9.5858
▁of▁the▁state	-9.58589
▁if▁they▁were	-9.58648
▁is▁something	-9.58742
▁join	-9.58766
▁head	-9.588
▁works	-9.58811
▁to▁each▁other	-9.58818
▁is▁also	-9.5882
▁willingly	-9.58836
▁that▁when	-9.58879
ful	-9.58889
▁woman	-9.58906
ty	-9.59072
▁the▁knowledge	-9.59132
▁when▁it▁is	-9.59152
▁how▁to	-9.59167
▁oneself	-9.5921
▁hit	-9.59246
▁agreed▁that	-9.5929
ion▁of	-9.59358
▁is▁called	-9.59468
▁Simmias	-9.5953
▁term	-9.59573
▁imitation	-9.59707
▁And▁the	-9.59747
▁elements	-9.59759
▁that▁it▁was	-9.59782
▁And▁we	-9.59784
ing▁him	-9.59844
▁writing	-9.59857
▁they▁can	-9.59896
▁the▁person	-9.59907
▁lies	-9.59914
▁young▁men	-9.5999
▁language	-9.60012
▁the▁proper	-9.60046
▁the▁object	-9.6006
▁sacrifice	-9.60065
▁appears	-9.60106
▁a▁whole	-9.60119
▁expert	-9.60141
▁evidence	-9.60236
▁below	-9.60243
▁of▁the▁two	-9.60251
▁Nicias	-9.60256
▁the▁result	-9.60319
▁Hermogenes	-9.60323
▁if▁one	-9.60337
▁as▁it▁were	-9.60372
▁the▁king	-9.60432
▁madness	-9.60485
s▁from	-9.6053
▁we▁say▁that	-9.60601
▁T	-9.60696
▁fail	-9.60745
▁this▁is▁what	-9.60748
▁of▁some	-9.60808
ve▁said	-9.6091
▁one▁who	-9.60998
▁employ	-9.61077
▁seems▁to▁me	-9.61088
▁affairs	-9.61136
▁period	-9.61144
▁of▁my	-9.61173
▁reflect	-9.61177
▁or▁the	-9.61212
▁and▁their	-9.61232
▁since▁it▁is	-9.61244
▁the▁life	-9.61286
▁you▁could	-9.61373
▁you▁do	-9.61446
▁write	-9.6152
▁in▁particular	-9.6163
▁with▁which	-9.61682
▁display	-9.61693
▁exile	-9.6174
▁trial	-9.61758
▁those▁who▁have	-9.61789
▁after▁all	-9.61803
▁dare	-9.61847
▁numerous	-9.61865
▁allowed	-9.619
s▁on	-9.61914
▁somebody	-9.6195
▁fashion	-9.6199
▁would▁not▁be	-9.61991
▁sacrifices	-9.62
▁commit	-9.62094
▁Who	-9.62112
▁the▁time	-9.62161
▁quality	-9.62177
ry	-9.62193
▁So▁let	-9.62221
▁behind	-9.62236
▁charge	-9.62238
▁to▁those	-9.6226
el	-9.62266
s▁with	-9.623
▁involuntarily	-9.62316
▁under▁the	-9.62335
▁function	-9.62465
▁honors	-9.62572
ical	-9.62636
▁object	-9.62648
▁legislation	-9.62694
▁previous	-9.62744
▁or▁other	-9.6275
What	-9.62766
▁stone	-9.62891
▁practical	-9.62998
▁appropriate▁to	-9.63023
▁applies	-9.63045
▁a▁name	-9.63068
▁special	-9.63091
▁spoke	-9.63142
▁continue	-9.63153
▁Will	-9.63169
▁aim	-9.63191
▁to▁the▁gods	-9.63233
▁does▁not▁know	-9.63272
▁receive	-9.63278
▁fair	-9.63305
▁court	-9.63362
▁there▁is▁a	-9.63377
▁a▁child	-9.63381
▁refuse	-9.63425
▁Odysseus	-9.63449
▁the▁sophist	-9.63481
▁parents	-9.63489
▁element	-9.63526
▁to▁another	-9.63546
▁example	-9.63566
▁we▁will	-9.63577
▁is▁an	-9.63597
s▁own	-9.63636
▁do▁we	-9.63656
ri	-9.63752
▁is▁impossible	-9.63824
▁lay	-9.63843
▁the▁better	-9.6385
▁poetry	-9.63871
▁No▁one	-9.63888
re▁not	-9.6397
▁we▁would	-9.6405
▁Certainly	-9.64081
▁many▁people	-9.64106
▁as▁you▁say	-9.64159
▁holds	-9.64187
▁So▁it	-9.64229
▁that▁all	-9.64233
▁gentle	-9.64235
▁confident	-9.64296
▁importance	-9.64299
▁possessions	-9.64303
▁Menexenus	-9.64309
▁looks	-9.64341
▁grant	-9.64347
▁e	-9.64386
▁than▁the	-9.64397
▁observe	-9.64418
▁sea	-9.64444
▁they▁say	-9.64568
▁agree▁with	-9.64699
▁claim▁that	-9.64793
▁service	-9.6484
▁There▁is	-9.6484
▁suitable	-9.64862
▁persuasion	-9.649
▁mother	-9.6491
▁find▁it	-9.65012
▁least	-9.65092
▁include	-9.65113
▁Athenian	-9.65119
ne	-9.65133
▁and▁so▁on	-9.65193
▁brave	-9.65379
▁combination	-9.65403
▁loved	-9.65433
▁offspring	-9.65493
▁impious	-9.65497
▁the▁next	-9.65545
▁diseases	-9.65548
▁shall▁be	-9.65586
▁blame	-9.65624
▁policy	-9.65681
▁whether▁it▁is	-9.65774
▁occasion	-9.65799
▁describe	-9.65839
▁meaning	-9.65874
▁Such	-9.6589
▁proved	-9.65901
▁to▁deal▁with	-9.6591
▁happen	-9.65973
▁I▁do▁not	-9.65989
▁right▁to	-9.66004
▁odd	-9.6612
▁supreme	-9.66262
▁will▁have	-9.66278
▁corrupt	-9.66302
▁one▁is	-9.66315
▁Achilles	-9.66383
▁relatives	-9.66417
▁he▁says	-9.66431
▁of▁the▁city	-9.66466
ed▁and	-9.66508
▁former	-9.666
▁committed	-9.66617
▁them▁in	-9.66762
▁Adeimantus	-9.66816
▁is▁more	-9.66825
▁followed	-9.66842
▁Or▁do	-9.67043
▁doctor	-9.6705
▁if▁you▁are	-9.67273
▁images	-9.67298
▁compared	-9.673
▁ex	-9.67446
▁occur	-9.67475
▁that▁he▁is	-9.67489
▁ready▁to	-9.67508
▁Cebes	-9.6753
▁B	-9.6758
▁if▁he▁is	-9.67713
▁perceive	-9.67798
▁used▁to	-9.6789
▁his▁soul	-9.67922
▁the▁rulers	-9.67967
▁on▁this	-9.67976
▁these▁men	-9.67994
▁whether▁you	-9.68001
▁How▁could	-9.68052
▁if▁it▁were	-9.68058
▁everybody	-9.68081
▁party	-9.68117
▁no▁way	-9.68159
▁there▁was	-9.68169
▁to▁find▁out	-9.68177
▁absurd	-9.682
▁but▁if	-9.6822
▁we▁could	-9.68224
▁profession	-9.68259
ho	-9.68286
▁in▁itself	-9.68331
▁procedure	-9.685
▁Next	-9.68508
▁yes	-9.68515
▁Oh	-9.68516
▁association	-9.68531
▁guardian	-9.6857
▁For▁example	-9.68589
▁unwilling	-9.68645
▁with▁his	-9.68749
▁described	-9.68753
▁regulations	-9.6882
▁among▁them	-9.6885
▁he▁could	-9.68909
▁since▁they	-9.68961
▁travel	-9.68981
▁D	-9.69019
▁craftsmen	-9.69025
▁kind▁of▁thing	-9.69102
▁intend	-9.69291
▁seem▁to	-9.69303
▁it▁appears	-9.69309
▁Greeks	-9.69356
▁di	-9.69384
▁he▁did	-9.69445
▁painful	-9.6961
▁the▁true	-9.69685
▁Which	-9.69697
▁put▁it	-9.69716
▁is▁really	-9.69755
▁the▁worst	-9.69931
▁drive	-9.6996
▁prefer	-9.70184
▁white	-9.70346
▁you▁did	-9.70348
▁temples	-9.70449
▁to▁find	-9.70451
▁kings	-9.70483
▁about▁that	-9.70551
ance	-9.70594
▁smooth	-9.70644
▁understood	-9.70681
▁Protarchus	-9.70683
▁we▁mentioned	-9.70706
▁wherever	-9.70715
▁in▁my	-9.70827
▁early	-9.70827
▁our▁city	-9.70835
▁genuine	-9.70942
▁realize	-9.70955
▁he▁must▁be	-9.70995
▁And▁I	-9.71147
▁living▁creature	-9.71162
▁to▁bring	-9.71229
▁vote	-9.71259
that	-9.71276
▁degree	-9.71288
▁decided	-9.71289
▁as▁follows	-9.71347
▁pleased	-9.71374
▁should▁not	-9.71375
▁the▁words	-9.71389
▁there▁were	-9.71437
▁in▁the▁world	-9.71441
▁blood	-9.71593
▁enter	-9.71627
▁of▁you	-9.71707
▁between▁them	-9.71711
▁doctrine	-9.71712
▁the▁first▁place	-9.71722
▁concerned	-9.71739
▁acting	-9.71788
▁that▁the▁soul	-9.71821
▁require	-9.71853
▁sick	-9.71929
▁in▁relati	-9.71947
▁safe	-9.71957
▁going▁to▁be	-9.71991
▁lie	-9.72011
▁the▁contrary	-9.72017
▁figure	-9.721
▁chosen	-9.72103
▁distinction	-9.72154
ra	-9.72207
s▁what	-9.72229
▁discipline	-9.72249
▁of▁learning	-9.72265
▁guide	-9.72369
▁no▁less	-9.72429
▁gifts	-9.72452
▁lose	-9.72515
▁a▁fine	-9.72603
▁pious	-9.72605
▁govern	-9.72617
▁deep	-9.72648
▁the▁enemy	-9.72675
▁Meletus	-9.72904
▁Solon	-9.72905
▁Clearly	-9.72905
▁In▁that▁case	-9.72905
▁Instead	-9.72908
▁welcome	-9.72908
▁discourse	-9.72937
▁I▁take▁it	-9.7298
▁holding	-9.7298
▁belong	-9.72985
▁succeed	-9.72986
t▁the	-9.7299
▁the▁universe	-9.73003
▁harmful	-9.73006
ather	-9.73036
▁solid	-9.73112
▁officials	-9.73195
age	-9.73203
▁interest	-9.73204
▁is▁like	-9.73246
▁insist	-9.73344
▁This▁is▁the	-9.73381
rom	-9.73426
▁the▁lover	-9.73426
▁we▁ought	-9.7345
ally	-9.73475
▁report	-9.7351
▁at▁the▁time	-9.73593
▁ideas	-9.73594
▁objects	-9.73603
▁changes	-9.7369
▁previously	-9.73692
▁imitate	-9.73718
▁people▁are	-9.73743
▁that▁there	-9.73776
ling	-9.73801
▁most▁people	-9.73828
▁We▁have	-9.73848
▁test	-9.73885
▁feeling	-9.73915
▁see▁whether	-9.73941
▁acts	-9.7408
▁which▁he	-9.74101
▁to▁tell	-9.74181
▁The▁first	-9.74203
Glaucon	-9.74229
▁command	-9.74247
▁started	-9.74263
▁but▁rather	-9.7427
▁in▁common	-9.74328
▁really▁is	-9.7436
▁running	-9.74377
▁piece	-9.74431
▁and▁we	-9.74485
▁soul▁is	-9.74505
▁caused	-9.74566
▁knowledge▁is	-9.74654
▁named	-9.74678
▁pretend	-9.74706
▁Then▁let	-9.74727
▁crafts	-9.74748
▁touch	-9.7478
▁hope	-9.74818
em	-9.74852
▁judging	-9.74905
▁Did	-9.74957
▁carried	-9.74966
▁eyes	-9.74973
▁we▁don	-9.75018
▁that▁was	-9.75033
▁because▁of▁the	-9.75106
▁several	-9.75167
▁We▁should	-9.7517
▁trivial	-9.75176
▁supply	-9.75176
▁nowadays	-9.75177
▁Look	-9.75178
▁believes	-9.75187
▁thoroughly	-9.752
▁things▁which	-9.75253
▁existence	-9.75356
▁opinions	-9.75384
▁to▁others	-9.75501
▁from▁it	-9.7561
▁teacher	-9.7561
▁misfortune	-9.75615
▁over▁the	-9.75775
▁the▁form	-9.75931
▁people▁who▁are	-9.75933
▁disgrace	-9.75941
▁theory	-9.7596
▁take▁up	-9.76057
▁appointed	-9.76116
▁discuss	-9.76233
▁goods	-9.76271
▁the▁individual	-9.76297
▁his▁body	-9.76308
▁which▁they	-9.7638
▁the▁bad	-9.76399
re▁right	-9.76541
most	-9.76671
▁tries▁to	-9.76681
▁similarly	-9.76733
▁when▁a▁man	-9.76896
▁in▁every	-9.76937
ill	-9.76957
▁exchange	-9.76989
id	-9.76999
do	-9.77013
▁his▁life	-9.77089
▁flesh	-9.77102
ol	-9.77183
▁as▁a▁result	-9.77191
▁come▁from	-9.772
▁keen	-9.77213
▁we▁do	-9.77256
▁bad▁things	-9.77277
▁meant	-9.77338
▁discussing	-9.77357
▁refer	-9.77393
▁violent	-9.77415
▁speaks	-9.77445
▁anywhere	-9.77456
▁description	-9.77482
▁influence	-9.77501
▁government	-9.77529
▁for▁himself	-9.7755
▁thereby	-9.77576
▁virtuous	-9.77666
▁ready	-9.77773
▁in▁view	-9.77778
▁region	-9.77978
▁the▁situation	-9.78032
t▁know▁what	-9.78033
▁each▁of▁these	-9.78058
▁and▁un	-9.78114
▁you▁say▁that	-9.78117
▁journey	-9.78133
▁by▁being	-9.78166
▁forever	-9.7823
▁stands	-9.78259
▁deeds	-9.7829
▁imp	-9.78397
▁admit	-9.78416
▁not▁being	-9.78431
▁kill	-9.78486
▁drinking	-9.78502
▁labor	-9.78529
▁progress	-9.78568
▁obey	-9.78599
▁lawgiver	-9.78629
leasure▁and▁pain	-9.78654
▁possibly	-9.78683
▁So▁what	-9.78702
▁See	-9.78721
▁from▁being	-9.78821
▁setting	-9.78825
ver	-9.78943
ing▁on	-9.78984
ff	-9.79071
▁in▁private	-9.79088
▁by▁law	-9.79146
▁to▁acquire	-9.79172
▁wishes	-9.79216
▁justly	-9.79296
▁reasons	-9.79297
▁you▁said	-9.79345
▁from▁a	-9.79376
▁sophists	-9.79403
▁to▁those▁who	-9.79417
▁bodily	-9.79443
▁responsible	-9.79538
▁that▁a	-9.7954
▁ability	-9.79555
▁declare	-9.79579
▁make▁them	-9.79611
▁from▁this	-9.79686
▁twelve	-9.79807
▁yesterday	-9.79884
▁miserable	-9.79884
▁shame	-9.7993
t▁suppose	-9.79939
▁translated	-9.80001
▁alive	-9.80029
▁young▁people	-9.80098
▁of▁these▁things	-9.80114
▁take▁care	-9.80122
▁met	-9.80156
▁occurs	-9.80186
▁accomplished	-9.80195
▁a▁number	-9.80252
▁one▁should	-9.80276
▁for▁what	-9.8041
▁claims	-9.80416
▁such▁people	-9.80502
ed▁from	-9.80544
▁with▁respect	-9.80546
▁old▁age	-9.80565
ious	-9.80568
▁listen	-9.80613
▁granted	-9.80622
▁the▁appropriate	-9.80751
▁many▁things	-9.80836
▁the▁craft	-9.80848
▁calculation	-9.80852
▁very▁well	-9.80872
▁speaker	-9.80878
▁marriage	-9.8088
▁victory	-9.80929
▁and▁the▁others	-9.80956
▁in▁the▁way	-9.81081
▁not▁be	-9.81119
▁repeat	-9.81157
▁we▁said	-9.8116
et	-9.81166
▁days	-9.81171
▁of▁wisdom	-9.81221
▁possession▁of	-9.81262
▁less▁than	-9.81287
▁customs	-9.81346
▁feet	-9.81369
▁Ion	-9.81511
▁at▁first	-9.81535
▁sounds	-9.81568
▁honored	-9.81638
▁and▁are	-9.81831
▁politics	-9.81904
▁so▁that▁they	-9.81971
▁or▁whether	-9.82046
▁do▁they	-9.8207
▁humans	-9.82098
▁proof	-9.82108
▁suffering	-9.82193
▁wild	-9.82258
▁guard	-9.82261
▁visit	-9.82295
▁studies	-9.82303
un	-9.82319
▁seven	-9.82335
▁the▁rest▁of▁the	-9.82374
▁cowardice	-9.82401
▁risk	-9.82409
▁disgraceful	-9.82451
▁of▁that▁sort	-9.82515
▁directed	-9.82573
▁the▁human▁race	-9.8261
thing	-9.82613
▁the▁sea	-9.82768
▁your▁father	-9.8282
▁to▁your	-9.8285
▁fate	-9.82868
▁Those	-9.82871
▁has▁no	-9.82876
▁at▁once	-9.82923
▁achieve	-9.82961
▁by▁the▁gods	-9.83002
▁plants	-9.83189
▁against▁the	-9.83194
▁a▁small	-9.83213
▁And▁you	-9.83257
▁to▁leave	-9.83268
▁more▁clearly	-9.83285
▁entire	-9.83347
▁Are▁you	-9.83557
▁is▁so	-9.83568
▁a▁woman	-9.83614
▁is▁neither	-9.83648
▁should▁have	-9.83776
▁wonder	-9.8379
▁or▁in	-9.83809
▁relation▁to▁the	-9.83823
▁assigned	-9.83882
s▁were	-9.83996
▁would▁make	-9.84002
▁is▁one	-9.84003
▁the▁correct	-9.84017
▁that▁we▁have	-9.84023
▁younger	-9.84106
▁of▁the▁universe	-9.84141
▁what▁you▁mean	-9.84143
▁wine	-9.84211
▁afraid	-9.84257
▁that▁you▁are	-9.84269
▁And▁it	-9.84341
▁a▁great▁many	-9.84391
▁in▁mind	-9.84422
▁soft	-9.8448
▁answering	-9.84501
▁prayers	-9.84503
▁and▁every	-9.84535
ure	-9.84553
▁likeness	-9.84594
▁utter	-9.84602
▁and▁say	-9.84612
▁characters	-9.84653
▁to▁accept	-9.84659
▁sweet	-9.8471
▁fully	-9.84718
▁brought▁up	-9.8474
▁orders	-9.84752
▁opposites	-9.84782
▁mistake	-9.84817
▁pull	-9.84821
▁destruction	-9.84823
▁Lysias	-9.84823
▁properties	-9.84824
▁youth	-9.84824
▁Simonides	-9.84854
▁sum	-9.84857
▁pick	-9.84877
▁try	-9.84888
s▁possible	-9.84966
▁on▁the▁ground	-9.84988
▁above▁all	-9.84994
▁but▁they	-9.8504
▁a▁tyrant	-9.8505
▁Good	-9.85061
▁to▁discuss	-9.85071
▁each▁of▁us	-9.85091
▁what▁is▁not	-9.85093
▁blessed	-9.85132
▁failed	-9.85134
▁as▁it	-9.85145
▁All▁right	-9.85149
▁nonsense	-9.85269
▁look▁for	-9.85358
▁soldiers	-9.85392
▁appeared	-9.85467
▁a▁part	-9.85481
▁instruct	-9.85504
▁which▁is▁not	-9.85547
pe	-9.85624
▁dialogue	-9.85742
▁reality	-9.85746
ed▁it	-9.85758
▁Hesiod	-9.85786
▁and▁good	-9.85802
▁the▁effect	-9.85827
t▁you▁think▁that	-9.85849
▁in▁the▁end	-9.85995
▁a▁few	-9.86036
▁approach	-9.86065
▁with▁us	-9.86083
▁is▁good	-9.86097
usually	-9.86158
▁heat	-9.8616
▁foreigners	-9.86181
▁consists	-9.86201
▁conditions	-9.86208
▁animal	-9.86212
▁between▁the	-9.86265
▁Shall▁we	-9.86274
▁if▁that	-9.86274
▁powers	-9.86296
▁secure	-9.86302
▁comes▁from	-9.8633
▁one▁must	-9.86348
▁mix	-9.86364
▁in▁motion	-9.86458
▁what▁about	-9.86501
▁wiser	-9.86549
▁to▁himself	-9.86572
▁and▁who	-9.86613
▁to▁rule	-9.86651
▁you▁want	-9.86679
▁unlimited	-9.86713
re▁talking▁about	-9.86717
▁replied	-9.86721
▁came▁to▁be	-9.86724
▁doing▁what	-9.86852
▁those▁that▁are	-9.86852
▁vice	-9.86987
▁the▁highest	-9.86992
▁this▁man	-9.87007
s▁good	-9.87014
▁in▁some	-9.87069
▁each▁thing	-9.87129
▁worthy▁of	-9.87143
▁duty	-9.87152
▁rough	-9.87153
▁phrase	-9.87183
x	-9.8724
▁encourage	-9.8725
▁of▁all▁the	-9.87256
▁will▁do	-9.87281
▁compare	-9.873
▁from▁you	-9.87308
▁But▁you	-9.87311
▁intermediate	-9.87387
▁to▁pay	-9.87406
▁plain	-9.87411
▁who▁had	-9.87419
▁confidence	-9.87425
▁tyranny	-9.87435
▁of▁others	-9.87444
ring	-9.87519
▁that▁what	-9.87524
▁whether▁they	-9.8755
music▁and▁poetry	-9.8755
▁and▁this	-9.87554
▁than▁that	-9.87562
▁arise	-9.87571
ing▁with	-9.87597
▁nothing▁else	-9.87633
▁if▁we▁can	-9.87667
▁consideration	-9.87732
▁return	-9.87809
▁enable	-9.87829
▁ought	-9.87844
▁usual	-9.87893
▁teach	-9.87992
▁offer	-9.88037
ng	-9.88083
eno	-9.88092
▁Of	-9.88103
▁cast	-9.88178
▁and▁have	-9.88203
▁related▁to	-9.8826
▁craftsman	-9.88265
▁the▁present	-9.88267
▁in▁a▁way	-9.88315
▁such▁an	-9.88325
▁what▁was	-9.8834
▁loves	-9.88347
▁else	-9.88377
▁appropriate▁for	-9.88381
▁constitutions	-9.884
▁and▁all▁the	-9.8842
ated	-9.88438
▁But▁surely	-9.88493
▁as▁being	-9.88509
▁list	-9.88517
▁not▁to▁be	-9.88587
▁the▁part	-9.88603
▁custom	-9.88619
s▁true	-9.88648
▁recognize	-9.88692
▁problem	-9.88749
▁and▁children	-9.88765
▁dear	-9.88809
▁abandon	-9.88848
▁v	-9.88857
▁creatures	-9.88996
▁self▁control	-9.89017
▁for▁which	-9.89068
▁brother	-9.89108
▁habit	-9.89132
ed▁on	-9.8914
▁deal▁with	-9.89195
▁Where	-9.89216
▁arrived	-9.89227
▁poverty	-9.89237
▁inspired	-9.89248
▁make▁a	-9.89278
▁as▁good	-9.89283
▁the▁Spartans	-9.89292
▁forget	-9.893
▁painting	-9.89303
▁older▁than	-9.89308
▁difficulties	-9.89337
▁for▁themselves	-9.89385
▁turns▁out▁to▁be	-9.8939
▁brothers	-9.89429
▁relative	-9.89537
er▁than	-9.89682
▁that▁I▁am	-9.89697
▁field	-9.89703
▁individuals	-9.89709
▁easier	-9.89789
▁this▁question	-9.89789
ing▁that	-9.89793
▁sh	-9.89797
▁voice	-9.89821
▁loss	-9.89849
▁judged	-9.89858
▁mad	-9.8986
▁lines	-9.89903
ine	-9.89939
▁do▁this	-9.89958
▁In▁the	-9.90025
▁heavy	-9.90107
▁reveal	-9.90119
▁That▁is▁why	-9.90188
▁rearing	-9.90205
▁a▁third	-9.90221
▁at▁rest	-9.90244
The	-9.90323
▁reproach	-9.90329
▁persons	-9.90363
▁glad	-9.90365
▁as▁we▁said	-9.90374
▁singing	-9.90381
▁can▁do	-9.90392
▁the▁poet	-9.90432
▁fast	-9.90436
▁unjustly	-9.90449
ou	-9.90519
▁on▁earth	-9.90546
ight	-9.90609
▁to▁discover	-9.90621
▁hot	-9.90634
t▁have	-9.90641
▁in▁the▁state	-9.90645
▁of▁his▁own	-9.907
▁and▁which	-9.9073
▁Do▁we	-9.90823
▁in▁return	-9.90829
▁must▁have	-9.90858
▁the▁young	-9.90882
▁instruction	-9.90897
▁or▁some	-9.90988
▁his▁son	-9.90992
▁heart	-9.90994
▁the▁head	-9.91007
▁based	-9.91025
▁attend	-9.91186
▁if▁not	-9.91191
▁deserve	-9.91318
d▁say	-9.91328
ish	-9.91493
▁itself▁and	-9.91526
▁adequate	-9.91697
▁personal	-9.9173
▁the▁different	-9.91861
▁lot	-9.91876
▁no▁more	-9.91905
▁I▁imagine	-9.91924
▁which▁you	-9.91945
▁material	-9.91987
ly▁and	-9.91993
▁were▁to	-9.91995
▁goodness	-9.92053
▁this▁kind▁of	-9.92104
▁the▁world	-9.92166
▁ba	-9.92194
▁ordinary	-9.92239
▁I▁understand	-9.92344
▁without▁any	-9.92378
▁a▁philosopher	-9.92389
▁our▁account	-9.92439
▁battle	-9.92445
▁thirty	-9.92473
▁answered	-9.9248
▁to▁investigate	-9.92482
▁that▁he▁was	-9.92568
▁the▁s	-9.92626
t▁think▁that	-9.92647
▁reference	-9.92672
▁moral	-9.92695
▁entrust	-9.92721
▁statesmanship	-9.92739
▁elsewhere	-9.92739
▁Won	-9.92743
▁kingship	-9.92748
▁for▁any	-9.92782
▁itself▁is	-9.92783
▁tall	-9.92795
▁caught	-9.92813
▁wickedness	-9.9286
▁blind	-9.929
▁image	-9.92911
▁he▁replied	-9.92999
▁settled	-9.93028
re▁saying	-9.93131
▁sufficiently	-9.93132
▁in▁us	-9.93179
▁had▁a	-9.93229
▁limit	-9.93242
▁sa	-9.93242
▁houses	-9.93252
▁since▁you	-9.93256
▁After▁all	-9.93273
▁sleep	-9.93311
▁plan	-9.93337
▁I▁suppose▁that	-9.93344
▁to▁have▁been	-9.93349
▁geometry	-9.93367
▁to▁die	-9.93376
▁just▁what	-9.93397
▁wide	-9.93495
▁conclusion	-9.93511
▁ha	-9.93552
▁of▁something	-9.93558
▁the▁name▁of	-9.93642
▁I▁think▁it	-9.93661
▁forced	-9.93696
▁Is▁there	-9.93696
▁such▁a▁man	-9.93701
▁of▁what▁is	-9.93727
▁for▁a▁man	-9.93742
▁An	-9.93811
s▁his	-9.93865
▁defend	-9.93914
▁standing	-9.93991
▁necessity	-9.94118
▁died	-9.94128
▁to▁possess	-9.94186
▁And▁he	-9.94228
▁path	-9.94244
ance▁with	-9.94274
▁men▁are	-9.94279
▁explained	-9.94281
▁make▁it	-9.94281
▁if▁he▁were	-9.94333
▁instructions	-9.94366
▁night	-9.9439
pl	-9.94412
ily	-9.94489
▁after▁the	-9.94492
▁mine	-9.94545
▁O	-9.94589
▁exact	-9.94621
▁temperate	-9.94682
▁foreign	-9.94719
▁sophist	-9.94719
▁the▁end	-9.94759
▁motions	-9.94815
▁sc	-9.94825
▁such▁a▁thing	-9.94833
▁the▁middle	-9.94863
▁the▁names	-9.94883
▁conclude	-9.9491
▁the▁court	-9.94934
▁them▁and	-9.94938
▁by▁some	-9.94941
▁everywhere	-9.9497
▁And▁they	-9.95048
▁If▁anyone	-9.95088
▁spent	-9.95102
▁And▁now	-9.95111
▁hate	-9.95161
▁I▁say▁that	-9.95169
▁say▁what	-9.95182
▁at▁that▁time	-9.95216
').	-9.95217
▁iron	-9.95294
▁a▁king	-9.9537
▁admit▁that	-9.95401
▁decent	-9.95404
▁success	-9.95462
▁prison	-9.95477
▁po	-9.95486
▁content	-9.95491
▁manage	-9.95492
▁stick	-9.95498
▁Besides	-9.95499
▁nevertheless	-9.95499
▁a▁great▁deal	-9.95509
▁affect	-9.9552
▁post	-9.95521
▁felt	-9.95533
▁the▁reason	-9.9561
▁active	-9.95654
▁contain	-9.9566
▁deal	-9.95696
▁Sparta	-9.95787
▁confusion	-9.95788
▁a▁man▁who▁is	-9.95799
▁meeting	-9.95825
▁so▁to▁speak	-9.95841
▁supposed	-9.95874
▁expression	-9.9592
▁have▁the	-9.95972
▁think▁it	-9.95989
▁pieces	-9.95997
▁And▁then	-9.96006
▁finished	-9.96056
▁read	-9.96082
▁and▁more	-9.96101
▁taste	-9.96144
▁are▁to▁be	-9.96225
▁and▁the▁rest	-9.96248
▁ten	-9.96394
▁opposite▁to	-9.96427
▁And▁do▁you	-9.96448
▁you▁had	-9.96459
▁not▁just	-9.96523
▁foot	-9.96539
▁turns	-9.96545
▁praised	-9.96598
▁comes▁to	-9.966
▁masters	-9.96602
▁you▁think▁that	-9.96606
▁one▁man	-9.9672
▁the▁number	-9.96753
▁sensible	-9.96766
▁appoint	-9.96803
▁their▁lives	-9.96856
▁us▁to	-9.96884
▁stage	-9.96886
▁hundred	-9.9698
▁triangles	-9.97003
▁philosopher	-9.97015
▁the▁statesman	-9.97034
▁we▁know	-9.9708
▁related	-9.97136
▁to▁prevent	-9.97138
▁games	-9.97195
▁wealthy	-9.97259
ed▁me	-9.9729
▁living▁thing	-9.97306
▁Every	-9.97372
▁demand	-9.9738
▁of▁fire	-9.97456
▁accepted	-9.97484
▁advantageous	-9.97675
s▁and▁pains	-9.97751
▁distinguish	-9.97771
▁contest	-9.97777
▁leading	-9.9778
▁know▁how	-9.97849
▁what▁happens	-9.97877
▁from▁what	-9.97887
▁yourselves	-9.97917
▁thoughts	-9.9795
▁and▁it▁is	-9.97971
▁murder	-9.97989
▁out▁of▁the	-9.98052
▁considering	-9.9812
▁because▁you	-9.98164
▁and▁let	-9.9819
▁a▁body	-9.98203
▁stronger	-9.98224
▁in▁an	-9.98234
▁surprising	-9.98321
▁skills	-9.98338
▁arithmetic	-9.98353
▁mutual	-9.98355
▁refrain	-9.98355
▁Similarly	-9.98356
▁handsome	-9.98365
▁all▁sorts	-9.98389
▁a▁life	-9.98396
▁Whether	-9.98399
▁good▁or▁bad	-9.98417
▁Whenever	-9.98437
▁any▁more	-9.9844
▁benefits	-9.985
s▁impossible	-9.98501
▁when▁one	-9.98515
▁voluntary	-9.9854
▁can▁be▁taught	-9.98652
▁six	-9.98659
▁musical	-9.98803
▁the▁penalty	-9.98813
▁know▁that	-9.98825
▁to▁teach	-9.99048
▁movements	-9.99102
▁of▁all▁things	-9.99141
ve▁heard	-9.99161
▁associate▁with	-9.99165
▁only▁one	-9.99271
▁of▁that▁kind	-9.99288
▁thirst	-9.993
▁details	-9.99328
▁undertake	-9.99334
▁the▁story	-9.9935
▁sign	-9.99425
▁I▁want▁to	-9.99452
▁So▁we	-9.99482
you	-9.99495
▁clearer	-9.99506
▁pro	-9.99513
▁efforts	-9.99565
▁more▁or▁less	-9.99618
▁to▁anyone	-9.99634
▁As▁for▁the	-9.99662
▁what▁I▁say	-9.99678
▁democracy	-9.99685
▁just▁one	-9.99707
▁so▁called	-9.99738
▁fears	-9.99759
▁forward	-9.99829
▁the▁Greeks	-9.99938
▁the▁ones	-9.99956
▁or▁any	-9.99981
▁the▁doctor	-10.0003
▁them▁as	-10.0007
▁deserves	-10.0007
▁men▁and▁women	-10.001
▁a▁father	-10.0018
▁Or▁is▁it	-10.0018
▁summon	-10.0021
te	-10.0021
▁interests	-10.0024
▁slander	-10.0029
▁have▁you	-10.0033
good	-10.0035
▁crimes	-10.0042
▁to▁examine	-10.0043
political▁system	-10.0049
▁the▁land	-10.0049
▁as▁they▁are	-10.0057
like	-10.0057
▁And▁again	-10.0059
▁request	-10.0061
▁I▁call	-10.0061
▁low	-10.0061
▁leaves	-10.0066
▁building	-10.0076
t▁you▁think	-10.0081
▁turn▁out	-10.0085
▁with▁this	-10.0089
▁So▁I	-10.0089
▁to▁one▁another	-10.0093
▁angry	-10.0093
▁inquiry	-10.0098
▁the▁case▁that	-10.011
▁relevant	-10.0111
▁violence	-10.0129
▁consent	-10.013
▁quantity	-10.013
▁role	-10.013
▁Could	-10.013
▁changing	-10.013
▁presumably	-10.013
▁behavior	-10.0131
▁since▁he	-10.0133
▁honorable	-10.0137
▁stated	-10.0143
▁song	-10.0148
▁to▁provide	-10.015
▁anything▁that	-10.0151
▁greater▁than	-10.0152
▁punish	-10.0153
▁both▁in	-10.0153
▁to▁consider	-10.0155
▁once▁again	-10.0156
▁level	-10.0165
▁see▁that	-10.0165
▁any▁of▁these	-10.0166
▁it▁seems▁that	-10.0166
▁and▁injustice	-10.0166
▁that▁some	-10.0167
▁belonging	-10.0168
t▁it▁be	-10.0178
▁said▁to▁be	-10.0178
▁school	-10.0186
▁in▁virtue	-10.0192
▁dance	-10.0202
▁events	-10.0205
▁Apollo	-10.0206
▁for▁that	-10.0208
ve▁got	-10.0209
▁in▁the▁middle	-10.021
▁larger	-10.0212
▁that▁makes	-10.0218
▁available	-10.0221
▁involves	-10.0226
▁formed	-10.0226
▁are▁good	-10.0228
▁fixed	-10.0231
▁You▁know	-10.0232
▁measures	-10.0235
▁of▁yours	-10.0236
▁looking▁for	-10.0246
am	-10.0247
ein	-10.0256
▁call▁them	-10.0259
▁appear▁to▁be	-10.0262
▁but▁he	-10.0264
▁am	-10.0269
▁does▁he	-10.0269
▁letter	-10.0273
lo	-10.0275
ed▁the	-10.0277
t▁the▁same▁time	-10.0277
▁have▁any	-10.0291
▁my▁dear	-10.0294
▁closely	-10.03
of	-10.0302
▁decision	-10.0307
▁on▁it	-10.031
▁since▁we	-10.0312
▁the▁two	-10.0319
▁changed	-10.0321
▁which▁has	-10.0324
▁aid	-10.0326
▁Or▁is	-10.0327
▁and▁does	-10.0333
▁flowing	-10.0337
You	-10.0338
▁practiced	-10.0339
▁of▁time	-10.0341
▁take▁it	-10.0341
▁that▁one	-10.0349
▁danger	-10.0353
▁piety	-10.0358
▁dealing▁with	-10.0368
ac	-10.0368
▁final	-10.0371
▁deliver	-10.0372
▁the▁word	-10.0373
▁what▁is▁best	-10.0378
▁he▁thinks	-10.038
▁justice▁is	-10.0381
▁resist	-10.0386
▁mixture	-10.0386
▁overcome	-10.0388
▁I▁won	-10.0391
▁horse	-10.0392
▁than▁the▁other	-10.0399
▁colors	-10.04
▁it▁makes	-10.0406
▁reject	-10.0408
▁one▁person	-10.0413
▁depend	-10.0417
▁This▁is▁what	-10.0423
▁believing	-10.0426
▁finds	-10.0428
▁sitting	-10.0428
ap	-10.0432
▁current	-10.0433
▁praising	-10.0433
▁pretty▁well	-10.0433
▁activity	-10.0433
▁vicious	-10.0433
▁Second	-10.0433
▁Everyone	-10.0434
▁experience▁of	-10.0442
▁you▁yourself	-10.0443
s▁himself	-10.0446
▁It▁is▁not	-10.0447
▁address	-10.0447
▁It▁seems▁to▁me	-10.0449
▁And▁this	-10.0453
▁And▁does	-10.0463
▁incapable	-10.0471
▁trained	-10.0472
▁types	-10.0476
▁combined	-10.0476
▁al	-10.0477
▁that▁we▁are	-10.0482
▁conviction	-10.0484
▁of▁the▁same	-10.0486
▁our▁present	-10.0486
▁I▁think▁we	-10.0488
▁of▁ours	-10.0488
▁You▁mean	-10.049
▁ordered	-10.0498
▁the▁right▁way	-10.05
▁Megillus	-10.0505
▁encounter	-10.0513
▁appetites	-10.0521
ably	-10.0525
▁beside	-10.0527
▁ugly	-10.0527
▁joint	-10.0534
▁the▁light	-10.0538
v	-10.0544
▁we▁won	-10.0545
▁ruin	-10.0546
▁settle	-10.0548
▁you▁like	-10.0549
▁weaving	-10.0549
▁someone▁who▁is	-10.0549
▁the▁authorities	-10.0556
▁the▁philosopher	-10.0564
▁let▁me	-10.0564
▁select	-10.0566
▁to▁think▁that	-10.057
▁for▁our	-10.0571
ig	-10.0583
▁tools	-10.0584
▁Spartan	-10.0584
▁to▁these	-10.0588
▁H	-10.0589
▁Then▁what	-10.0593
▁your▁argument	-10.0599
▁a▁particular	-10.0602
▁for▁some	-10.061
▁determine	-10.0622
▁A▁man	-10.0624
▁depart	-10.0625
▁our▁bodies	-10.0633
▁ignorant▁of	-10.0643
▁the▁father	-10.0648
▁increase	-10.0663
▁weak	-10.0664
▁in▁life	-10.0666
▁carefully	-10.0668
ve▁just	-10.0674
▁define	-10.0674
▁constitute	-10.0675
▁Those▁who	-10.0675
de	-10.0678
▁highly	-10.0679
▁mouth	-10.0685
▁what▁they▁are	-10.0689
▁The▁same	-10.0693
▁fewer	-10.0693
▁my▁friends	-10.0696
▁blessing	-10.0697
▁Now▁then	-10.0702
▁intelligible	-10.0703
▁raise	-10.0705
▁splendid	-10.0711
▁consistent	-10.0722
▁working	-10.073
▁the▁speech	-10.0737
ing▁me	-10.0739
ating	-10.074
▁dying	-10.074
for	-10.0743
▁silver	-10.0745
▁penalties	-10.0745
▁At▁any▁rate	-10.0745
▁signifies	-10.0746
▁belongs	-10.0746
▁dealt▁with	-10.0746
▁he▁gave	-10.0747
▁those▁who▁do	-10.0749
▁is▁done	-10.0749
▁signify	-10.075
▁Athena	-10.075
▁of▁this▁kind	-10.0751
▁gain	-10.0752
ve▁described	-10.0752
▁civil▁war	-10.0753
▁evidently	-10.0755
▁anybody	-10.0758
▁anyone▁who▁is	-10.076
▁proportion	-10.0766
▁paid	-10.077
▁though▁he	-10.0771
▁the▁young▁man	-10.0772
▁him▁and	-10.0772
▁rational	-10.0774
ness▁and	-10.0777
▁any▁of▁the	-10.0784
▁that▁those▁who	-10.0796
▁requires	-10.08
▁trees	-10.0801
ities	-10.0802
▁Should	-10.0811
▁no▁doubt	-10.0813
im	-10.0814
▁lacks	-10.0821
▁driven	-10.0822
▁inflict	-10.0828
▁just▁like	-10.0829
▁to▁act	-10.0831
▁consequences	-10.0832
▁good▁and▁bad	-10.0834
▁to▁describe	-10.0834
▁prayer	-10.0835
▁intended	-10.0836
▁its▁opposite	-10.0836
▁and▁do	-10.0842
▁advise	-10.0845
▁boy	-10.0845
▁the▁previous	-10.085
▁I▁am▁not	-10.085
▁close▁to	-10.0853
▁the▁eyes	-10.0853
▁break	-10.0861
▁young▁man	-10.087
▁separated	-10.0881
▁offering	-10.0884
▁during▁the	-10.0886
▁makes▁it	-10.0892
ad	-10.0893
▁exercises	-10.0902
▁moved	-10.0904
▁as▁for	-10.0907
▁the▁beautiful	-10.0909
▁Nothing	-10.0918
▁as▁long▁a	-10.092
▁songs	-10.0922
▁from▁me	-10.0924
▁looked	-10.0926
▁the▁lawgiver	-10.0928
▁he▁himself	-10.0934
▁correctness	-10.0936
▁quick	-10.0937
▁classes	-10.0945
▁of▁reason	-10.0946
▁We▁are	-10.0947
tion	-10.0953
▁of▁other	-10.0953
▁on▁the▁subject	-10.0959
▁develop	-10.0962
vi	-10.0963
▁weapons	-10.0965
▁what▁the	-10.0966
▁and▁many▁other	-10.0967
▁tell▁you	-10.097
▁says▁that	-10.0971
▁find▁out	-10.0979
▁senses	-10.0987
▁lying	-10.0991
▁hard▁to	-10.0994
▁the▁fine	-10.0995
▁the▁guardians	-10.0996
▁the▁ability	-10.0998
▁what▁I▁mean	-10.1004
▁we▁find	-10.1011
▁class▁of	-10.1017
▁release	-10.1031
▁practices	-10.1033
▁step	-10.1037
▁household	-10.1038
struck	-10.1039
▁discussed	-10.104
▁have▁done	-10.1042
▁engage▁in	-10.1044
▁silent	-10.1046
▁vision	-10.105
▁satisfied	-10.1062
▁longer	-10.1067
▁thinking▁that	-10.1067
▁bigger	-10.1067
▁counsel	-10.1067
▁a▁point	-10.1068
▁permitted	-10.1068
▁nourishment	-10.1068
▁conception	-10.1068
▁runner	-10.1068
▁wholly	-10.1068
▁composition	-10.107
▁hair	-10.1071
▁Eryximachus	-10.1073
▁brief	-10.1073
▁at▁the▁moment	-10.1076
▁Polemarchus	-10.1085
▁direct	-10.1088
▁their▁children	-10.1091
ll▁have▁to	-10.1092
▁is▁better	-10.1094
▁justified	-10.1095
▁a▁speech	-10.1098
▁many▁times	-10.1099
▁this▁time	-10.1102
▁more▁than▁one	-10.1102
▁constructed	-10.1103
▁statements	-10.1105
▁is▁correct	-10.111
▁When▁he	-10.1111
▁sure	-10.1112
▁dur	-10.1113
▁sexual	-10.1113
▁to▁all	-10.1116
▁reasoning	-10.112
▁begins	-10.1121
▁it▁is▁possible	-10.1121
▁he▁may	-10.1124
▁to▁judge	-10.1124
▁the▁source	-10.1125
▁an▁expert	-10.1128
'),▁'	-10.1132
▁tune	-10.1137
▁know▁how▁to	-10.114
▁both▁are	-10.114
▁mis	-10.1141
▁a▁young▁man	-10.1149
ny	-10.1151
▁if▁you▁like	-10.1165
▁destroy	-10.1165
▁the▁presence▁of	-10.117
▁from▁his	-10.1175
▁moment	-10.1177
▁or▁anyone▁else	-10.1181
▁two▁kinds	-10.1181
▁promise	-10.1182
▁fairly	-10.1184
▁natures	-10.1191
▁its▁name	-10.1199
▁visitor	-10.1199
▁stones	-10.1202
▁pursuit	-10.1203
▁I▁asked	-10.1209
▁I▁do▁not▁think	-10.121
▁completed	-10.1216
▁a▁case	-10.1218
▁Is▁this	-10.1221
▁are▁they	-10.1228
▁folly	-10.1232
▁you▁may	-10.1251
▁when▁someone	-10.1252
▁that▁these	-10.1253
▁compel	-10.1255
▁both▁of▁them	-10.126
▁society	-10.1261
▁is▁concerned	-10.1265
▁the▁last	-10.1265
▁of▁Socrates	-10.1266
▁of▁one	-10.1271
▁disagree	-10.1286
▁just▁mentioned	-10.1287
▁and▁has	-10.1287
▁dogs	-10.1296
▁audience	-10.1299
▁I▁want	-10.13
▁moves	-10.1303
▁Many	-10.1304
▁yours	-10.1304
C	-10.1307
ize	-10.1308
rts▁of▁expertise	-10.1313
▁but▁it▁is	-10.132
▁of▁Athens	-10.1323
▁to▁its	-10.1329
▁how▁it▁is	-10.1329
▁need▁to	-10.1329
ct	-10.1333
▁all▁the▁others	-10.1341
▁the▁real	-10.1353
▁social	-10.1354
▁I▁myself	-10.1354
▁as▁many	-10.1359
▁serve	-10.1359
▁an▁image	-10.1365
▁wise▁men	-10.1367
▁will▁you	-10.1371
▁likewise	-10.1379
▁mass	-10.1379
▁the▁natural	-10.1382
des	-10.1387
▁the▁greater	-10.1394
ave	-10.1398
▁bright	-10.14
▁Please	-10.1401
▁organization	-10.1401
▁think▁of	-10.1402
▁category	-10.1403
▁lay▁down	-10.1405
▁that▁no▁one	-10.1405
▁the▁largest	-10.1407
▁in▁this▁case	-10.1408
▁and▁get	-10.1409
▁a▁bad	-10.1411
▁derive	-10.1413
▁no▁other	-10.1413
▁inevitable	-10.1413
▁skin	-10.1414
▁he▁knows	-10.1418
ack	-10.1422
▁but▁now	-10.1426
▁part▁of▁it	-10.1428
▁But▁if▁you	-10.1428
▁with▁your	-10.1431
▁listen▁to	-10.1432
▁have▁some	-10.1433
▁examples	-10.1437
▁legend	-10.1438
▁to▁the▁city	-10.1439
▁not▁at▁all	-10.1447
▁have▁in▁mind	-10.1448
▁who▁were	-10.1449
▁wanted	-10.1454
▁his▁head	-10.1456
▁as▁an	-10.1457
▁me▁to	-10.1459
▁could▁not	-10.1459
▁sees	-10.1464
▁for▁instance	-10.1464
▁paying	-10.1472
▁founded	-10.1477
▁existing	-10.1479
▁it▁can	-10.148
s▁me	-10.1484
▁to▁choose	-10.1486
▁is▁right	-10.1486
▁different▁thing	-10.1489
ble	-10.1489
▁governed	-10.1495
▁whether▁he	-10.1495
at▁the▁beginning	-10.1498
s▁nothing	-10.15
▁they▁themselves	-10.1519
ow	-10.1525
▁of▁necessity	-10.1525
▁are▁concerned	-10.1526
▁required	-10.1526
▁of▁philosophy	-10.1531
▁wives	-10.1533
ught	-10.1535
▁as▁I▁say	-10.1535
▁crowd	-10.1539
▁of▁gods	-10.1541
▁model	-10.1544
▁if▁a▁man	-10.1547
▁principle	-10.1547
▁Are▁we	-10.1553
▁before▁the	-10.1556
▁front	-10.1557
▁in▁these	-10.156
▁way▁in▁which	-10.1562
▁provides	-10.1562
▁tool	-10.1565
▁sets	-10.1568
▁down▁to	-10.1569
t▁that	-10.1573
▁witness	-10.1576
▁a▁human▁being	-10.1579
▁of▁music	-10.1582
▁scale	-10.1588
▁there▁are▁two	-10.1593
▁to▁be▁good	-10.1593
▁listening▁to	-10.1594
▁it▁must	-10.1595
▁and▁some	-10.1597
▁inevitabl	-10.1608
▁hypothesis	-10.1609
▁passage	-10.161
▁in▁war	-10.1616
▁has▁not	-10.162
▁can▁we	-10.1624
▁walk	-10.1628
▁But▁we	-10.1634
▁every▁man	-10.164
▁instruments	-10.1641
▁per	-10.1656
▁so▁that▁it	-10.166
▁and▁sometimes	-10.1663
▁them▁to▁be	-10.1668
▁false▁judgment	-10.1669
▁ho	-10.168
▁the▁common	-10.1683
▁delight	-10.1684
▁a▁ship	-10.1691
▁in▁love▁with	-10.1692
▁should▁not▁be	-10.1692
▁till	-10.1693
▁fault	-10.1698
▁sail	-10.1701
▁he▁would▁be	-10.1704
▁will▁not▁be	-10.1705
▁speed	-10.1708
▁corrupted	-10.1711
▁defeat	-10.1732
▁we▁want	-10.1735
▁harsh	-10.1738
▁has▁to▁be	-10.1738
ach	-10.1744
▁trick	-10.1746
▁hesitate	-10.1746
▁Heaven	-10.1746
▁fought	-10.1747
▁we▁said▁that	-10.1747
▁self▁controlled	-10.1747
▁safety	-10.1747
▁Was	-10.1748
▁community	-10.1748
▁is▁how	-10.1753
▁the▁term	-10.1754
ian	-10.1754
▁a▁large	-10.1754
▁everyone▁else	-10.1755
▁take▁a	-10.1757
▁road	-10.1761
▁another▁thing	-10.1762
▁ought▁not▁to	-10.1763
▁make▁him	-10.1767
▁sphere	-10.1768
▁give▁up	-10.1771
▁leads	-10.1773
▁what▁we▁said	-10.1775
▁believed	-10.1775
we	-10.1781
▁rhythm	-10.179
▁purposes	-10.1791
▁heroes	-10.1792
▁relations	-10.1798
▁escaped	-10.1802
▁involve	-10.1802
▁or▁what	-10.1804
▁asks	-10.1807
▁successful	-10.1808
ed▁them	-10.181
▁to▁do▁what	-10.1814
▁playing	-10.1816
▁partake	-10.182
ul	-10.182
▁products	-10.1822
▁the▁tyrant	-10.1835
▁ancestors	-10.1838
▁do▁not▁know	-10.1845
▁upbringing	-10.1846
▁book	-10.1847
▁of▁the▁good	-10.1859
▁and▁do▁not	-10.1865
ose	-10.1865
▁younger▁than	-10.1868
▁On▁the	-10.1874
▁go▁back	-10.188
▁of▁the▁others	-10.188
▁to▁apply	-10.1886
▁a▁long	-10.1891
▁makes▁them	-10.1895
▁He▁is	-10.1898
▁G	-10.1901
▁as▁before	-10.1906
▁which▁one	-10.1907
▁by▁this	-10.1907
▁feelings	-10.1908
▁virtues	-10.1914
▁criticize	-10.1915
▁in▁what	-10.1918
▁suffering▁it	-10.1922
▁let▁him	-10.1922
▁involved▁in	-10.193
▁dream	-10.1932
▁have▁not	-10.1933
▁preserve	-10.194
▁It▁would	-10.1945
▁in▁pain	-10.1945
s▁about	-10.1947
▁added	-10.195
▁astronomy	-10.1951
▁fourth	-10.196
▁each▁of▁them▁is	-10.1961
▁with▁their	-10.1967
▁thousand	-10.1968
ence	-10.197
▁suggest	-10.1981
s▁name	-10.1987
▁opposed	-10.199
▁extent	-10.1991
▁while▁the▁other	-10.1996
▁clothes	-10.1999
ph	-10.2003
▁far▁as▁possible	-10.2006
ge	-10.201
▁unity	-10.2011
▁dancing	-10.2017
▁laid▁down	-10.2022
ake	-10.2023
▁concerns	-10.2026
▁gift	-10.2027
▁in▁Athens	-10.2033
▁accompani	-10.2041
▁legislate	-10.2042
▁can▁see	-10.2042
all	-10.2043
▁portion	-10.2043
▁amazing	-10.2052
▁one▁of▁these	-10.2065
▁then▁be	-10.2065
▁in▁the▁past	-10.2067
▁alternative	-10.2071
ast	-10.2074
co	-10.2078
▁the▁wise	-10.2079
▁Then▁if	-10.2083
▁your▁question	-10.2085
▁submit	-10.2088
▁developed	-10.2089
▁distribute	-10.2095
▁wait	-10.2095
▁space	-10.2097
t▁get	-10.2101
▁peculiar	-10.2101
▁no▁matter	-10.2102
▁deliberation	-10.2102
▁esteem	-10.2103
▁Otherwise	-10.2103
▁black	-10.2103
▁competition	-10.2103
▁kinship	-10.2103
▁duties	-10.2103
▁structure	-10.2103
▁permission	-10.2103
▁nobody	-10.2106
▁dangerous	-10.2108
▁distress	-10.2108
▁compelled	-10.211
▁certainly▁not	-10.2111
▁men▁of▁Athens	-10.2111
▁foundation	-10.2116
▁obtain	-10.2118
▁It▁does	-10.2119
▁the▁least	-10.2125
▁praises	-10.2126
▁and▁wisdom	-10.2127
▁attain	-10.2131
▁good▁and	-10.2132
▁a▁general	-10.2133
▁just▁and▁unjust	-10.2136
ay	-10.214
▁design	-10.2142
▁describing	-10.2146
▁said▁I	-10.2146
▁contradict	-10.2147
▁unless▁he	-10.2148
▁am▁I	-10.2149
▁of▁the▁sort	-10.2151
ame	-10.2151
▁essential	-10.2154
▁stuff	-10.2156
▁his▁eyes	-10.216
▁push	-10.216
▁this▁knowledge	-10.2161
▁would▁have▁been	-10.2166
▁but▁a	-10.2168
▁of▁war	-10.2175
▁we▁did	-10.2176
▁forced▁to	-10.2179
▁treated	-10.218
ll▁find	-10.218
▁groups	-10.2182
',▁'	-10.2184
▁at▁present	-10.2189
▁as▁one	-10.2193
▁three▁times	-10.2196
▁of▁its▁own	-10.2198
ot	-10.2203
▁be▁called	-10.2205
▁while▁the	-10.2207
▁original	-10.2212
▁When▁we	-10.2219
▁to▁the▁point	-10.2221
▁struggle	-10.2227
▁first▁of▁all	-10.2231
▁If▁it	-10.2234
▁tribe	-10.2236
lu	-10.2237
▁badness	-10.2238
▁his▁name	-10.2245
▁as▁it▁seems	-10.2247
▁or▁another	-10.2249
▁appropriately	-10.225
▁and▁never	-10.2255
▁arrangements	-10.2256
▁a▁boy	-10.2257
▁appear▁to	-10.2261
▁what▁he▁says	-10.2265
▁doing▁so	-10.2266
▁they▁know	-10.2266
▁if▁you▁want	-10.2267
▁occasions	-10.2268
▁own	-10.2268
▁a▁horse	-10.2277
▁that▁we▁should	-10.2277
▁to▁my	-10.2279
▁carry	-10.228
▁meet	-10.2287
▁associated	-10.2287
▁but▁what	-10.2288
▁vi	-10.2288
t▁allow	-10.2291
▁the▁officials	-10.2293
▁to▁fight	-10.2295
▁represent	-10.23
▁who▁will	-10.2301
▁we▁see	-10.2321
▁But▁as	-10.2321
▁experienced	-10.2322
▁the▁manner	-10.2322
▁crime	-10.2325
ite	-10.2329
▁a▁good▁man	-10.2329
▁win	-10.2332
▁catch	-10.2334
▁a▁new	-10.2335
▁the▁air	-10.2341
▁you▁won	-10.2349
▁put▁together	-10.2352
s▁how	-10.2356
what	-10.2364
▁accomplish	-10.2366
▁whatever▁is	-10.2375
▁grows	-10.2375
▁to▁persuade	-10.2376
▁a▁person▁who	-10.2376
light	-10.2381
▁to▁practice	-10.2384
▁So▁now	-10.2384
tty	-10.2386
▁if▁he▁does	-10.2386
er▁of	-10.2387
▁bit	-10.2393
▁make▁the	-10.2398
▁of▁an	-10.2399
▁dies	-10.24
▁the▁speaker	-10.2404
▁speakers	-10.2405
▁wisdom▁and	-10.2407
▁charm	-10.2408
▁slow	-10.241
▁some▁of	-10.2416
▁affected	-10.2425
▁aims	-10.2426
by	-10.2428
▁all▁the▁rest	-10.2428
▁absence	-10.2429
▁altered	-10.243
he▁emendation	-10.2431
▁to▁hold	-10.2433
▁remove	-10.2435
▁they▁are▁not	-10.2443
▁return▁to	-10.2444
▁the▁Muses	-10.2447
▁devote	-10.2455
▁tyrant	-10.2457
▁vast	-10.2458
▁leisure	-10.2463
▁invariably	-10.2467
▁examination	-10.2468
▁referring▁to	-10.2469
▁will▁he	-10.247
▁failure	-10.2471
▁tremendous	-10.2471
▁drunk	-10.2472
▁verdict	-10.2472
▁producing	-10.2474
▁competent	-10.2474
▁assistance	-10.2474
▁Alternatively	-10.2476
m▁afraid	-10.2476
▁the▁general	-10.2478
▁irrational	-10.2479
▁sickness	-10.248
▁teaches	-10.2481
▁principles	-10.2484
▁origin	-10.2485
▁First▁of▁all	-10.2486
▁somewhat	-10.2487
▁including	-10.2488
▁considerable	-10.2492
s▁also	-10.2493
▁goal	-10.2499
ery▁well	-10.2502
▁to▁each	-10.2502
▁she▁said	-10.2504
▁Their	-10.251
▁and▁justice	-10.2512
▁observed	-10.2514
▁race	-10.2515
▁so▁long	-10.2516
▁admire	-10.2517
▁the▁parts	-10.2517
▁he▁is▁not	-10.2519
▁accustomed	-10.2521
▁official	-10.2523
▁of▁the▁earth	-10.2524
▁as▁something	-10.2526
▁product	-10.2527
▁in▁love	-10.2529
▁knowledgeable	-10.2534
▁from▁each▁other	-10.2534
▁he▁won	-10.2538
▁the▁many	-10.2538
aid	-10.2539
▁while▁he	-10.2548
▁about▁the▁gods	-10.2548
▁the▁original	-10.2548
▁they▁do▁not	-10.2549
▁receives	-10.255
▁careful	-10.255
▁and▁another	-10.2551
▁topic	-10.2554
▁mistaken	-10.2555
▁great▁power	-10.2556
▁an▁adequate	-10.2557
▁orator	-10.2559
▁So▁you	-10.256
▁talk▁about	-10.2563
▁Would▁you	-10.2564
▁selected	-10.2567
▁to▁make▁a	-10.2568
▁what▁we▁call	-10.2572
▁I▁think▁I	-10.2581
▁drawn	-10.2581
▁sub	-10.2584
▁to▁what▁is	-10.2592
▁if▁I▁were	-10.2595
▁of▁air	-10.2595
▁wanted▁to	-10.2597
▁with▁what	-10.2602
▁next▁to	-10.2604
▁habits	-10.2606
▁birds	-10.2607
▁passion	-10.261
ed▁him	-10.2611
▁one▁can	-10.2612
▁in▁any▁other	-10.2616
▁lacking	-10.2621
▁has▁come▁to▁be	-10.2624
▁claimed	-10.2625
▁examined	-10.2628
▁was▁the	-10.2647
▁that▁is▁not	-10.2653
▁a▁question	-10.2654
▁intention	-10.2655
tic	-10.2659
▁teachable	-10.266
!'	-10.2663
▁that▁would▁be	-10.2672
▁punished	-10.2674
▁of▁anything	-10.2674
▁poems	-10.2675
▁thought▁to▁be	-10.2685
▁for▁each	-10.2688
▁to▁listen▁to	-10.2692
▁useful▁for	-10.2692
▁You▁must	-10.2696
▁you▁and▁I	-10.2696
▁see▁what	-10.2697
▁supposing	-10.2698
▁in▁public	-10.2713
▁in▁respect	-10.2715
▁friendly	-10.2721
▁applied▁to	-10.2723
▁issue	-10.2729
▁But▁it	-10.2731
▁experiences	-10.2731
▁to▁any	-10.2731
▁living▁in	-10.2731
▁in▁one	-10.2734
▁parties	-10.2734
▁goddess	-10.2735
▁only▁a	-10.2736
▁the▁soul▁is	-10.2739
▁one▁that	-10.274
▁a▁discussion	-10.2741
▁the▁work	-10.275
▁any▁man	-10.2753
▁to▁drink	-10.2754
▁to▁tell▁you	-10.2757
▁enemy	-10.2757
▁it▁is▁a	-10.2758
▁go▁to	-10.2761
▁set▁out	-10.2768
▁despise	-10.277
▁his▁friends	-10.2772
z	-10.2772
▁you▁tell▁me	-10.2774
▁to▁be▁able▁to	-10.2774
▁tale	-10.2775
▁undergo	-10.2779
▁by▁god	-10.2781
▁laugh	-10.2783
▁shared	-10.2787
▁passages	-10.2788
nyone▁who▁wishes	-10.279
▁the▁extent	-10.2794
▁ever▁be	-10.28
▁finding	-10.2804
▁eight	-10.2806
▁poem	-10.2814
▁calm	-10.2815
▁argue	-10.2816
ard	-10.2831
▁the▁character	-10.2832
▁satisfy	-10.2833
▁said▁Socrates	-10.2835
▁constant	-10.2838
▁offers	-10.2845
▁but▁it	-10.2847
▁to▁offer	-10.2848
▁arrive	-10.2852
▁to▁do▁it	-10.2856
▁savage	-10.2857
▁worthwhile	-10.2858
▁cattle	-10.2858
▁intellectual	-10.2858
▁Sometimes	-10.2858
▁Anaxagoras	-10.2858
▁Both	-10.2858
▁simultaneously	-10.2858
▁grave	-10.286
▁whatsoever	-10.286
▁suggestion	-10.2861
▁refuses	-10.2864
▁Apparently	-10.2864
▁square	-10.2866
▁views	-10.2866
▁investigating	-10.2868
▁must▁not▁be	-10.2874
▁Plato	-10.2875
▁sex	-10.2876
▁saved	-10.2877
▁thought▁to	-10.2878
▁provid	-10.2881
▁falsehood	-10.2881
▁of▁how	-10.2883
▁leaders	-10.2885
▁a▁just▁person	-10.2887
▁long▁ago	-10.2887
▁consist	-10.2887
▁two▁things	-10.2888
▁the▁sort	-10.2894
▁an▁un	-10.2897
▁we▁were▁saying	-10.2899
▁would▁say	-10.2902
▁that▁would	-10.2903
▁and▁s	-10.2904
▁if▁he▁had	-10.2906
▁with▁an	-10.2907
▁the▁course	-10.2909
▁they▁call	-10.2914
▁pray	-10.2916
▁by▁them	-10.2917
▁of▁Love	-10.2922
▁and▁what▁is	-10.2923
▁creature	-10.2924
▁how▁can	-10.2925
▁the▁pleasant	-10.2927
oi	-10.2928
▁man▁who	-10.2939
▁bo	-10.2939
s▁up	-10.294
▁error	-10.2941
▁stable	-10.2946
▁you▁mention	-10.2957
▁contests	-10.2961
▁existed	-10.2966
▁your▁view	-10.2967
▁the▁answer	-10.2976
▁weight	-10.2976
▁en	-10.2979
▁it▁should▁be	-10.2979
▁is▁there	-10.298
▁if▁there▁is	-10.2988
▁that▁were	-10.2989
▁in▁another	-10.2996
▁picture	-10.2999
▁the▁public	-10.3
▁to▁imitate	-10.3005
▁note	-10.3005
▁is▁it▁not	-10.3008
s▁because	-10.3011
▁what▁I▁said	-10.3013
▁to▁win	-10.3018
▁what▁they▁say	-10.3032
▁the▁younger	-10.3033
▁But▁it▁is	-10.3037
▁oneness	-10.304
▁We▁can	-10.305
▁your▁friends	-10.3054
ing▁us	-10.3057
▁in▁battle	-10.3068
▁marvelous	-10.3068
t▁see	-10.3083
▁Lysimachus	-10.3087
▁track	-10.309
▁seems▁to▁have	-10.3103
s▁right	-10.3107
▁chorus	-10.3111
▁repeated	-10.3112
▁of▁the▁world	-10.3114
eu	-10.3114
▁If▁the	-10.3115
ship	-10.3116
▁one▁who▁is	-10.3122
ial	-10.3136
▁an▁art	-10.3136
▁and▁give	-10.3142
▁the▁fourth	-10.3147
▁Cronus	-10.3148
▁sun	-10.3151
▁partakes	-10.3156
▁awake	-10.3166
▁to▁determine	-10.3167
▁dispute	-10.3169
▁of▁the▁laws	-10.3172
▁beings	-10.3173
▁Most	-10.3177
What▁do▁you▁mean	-10.3181
cy	-10.3181
▁establish	-10.3182
▁defeated	-10.3185
▁When▁they	-10.3194
▁to▁refute	-10.3199
▁ring	-10.3204
▁the▁difference	-10.3207
▁any▁other▁way	-10.3208
▁urge	-10.321
▁pair	-10.3211
▁What▁else	-10.3211
▁we▁described	-10.3216
▁the▁day	-10.3223
);	-10.3224
ll▁have	-10.3225
▁regions	-10.3227
▁inquire	-10.3228
▁credit	-10.3231
▁they▁could	-10.3232
▁speak▁of	-10.3232
▁give▁it	-10.3233
▁combine	-10.3239
▁farmers	-10.3245
▁in▁case	-10.3246
some	-10.325
t▁be▁able▁to	-10.3255
▁venture	-10.3256
▁occurred	-10.3256
▁Anytus	-10.3258
▁wrongdoing	-10.3258
▁campaign	-10.3258
▁intercourse	-10.3258
▁warfare	-10.3258
▁studied	-10.3258
▁Eryxias	-10.3258
▁satisfactory	-10.3258
▁pleasing	-10.3258
▁good▁nor▁bad	-10.3258
▁proposal	-10.3259
▁Theages	-10.3259
▁relationship	-10.3259
▁at▁a▁loss	-10.326
▁come▁into▁being	-10.326
▁cross	-10.326
▁separation	-10.326
▁you▁know▁that	-10.326
▁plausible	-10.326
▁had▁not	-10.3261
▁to▁explain	-10.3262
▁in▁any▁case	-10.3263
▁Callias	-10.3263
▁in▁that▁case	-10.3264
▁Euripides	-10.3264
▁the▁smallest	-10.3265
▁harder	-10.3266
▁But▁perhaps	-10.3268
▁representation	-10.327
▁ruler	-10.3271
▁recollection	-10.3271
▁gods▁and▁men	-10.3271
▁in▁some▁way	-10.3272
▁confused	-10.3272
▁obliged	-10.3272
▁oppose	-10.3273
▁the▁lyre	-10.3273
▁In▁this▁way	-10.3273
▁with▁any	-10.3279
▁constantly	-10.3279
▁to▁turn	-10.328
▁in▁a▁state	-10.3281
▁the▁water	-10.3283
▁with▁our	-10.3285
▁Aristodemus	-10.3287
▁shapes	-10.3288
▁involuntary	-10.3294
▁a▁citizen	-10.3298
▁belong▁to▁the	-10.3299
▁looked▁at	-10.33
▁professional	-10.33
▁late	-10.3303
▁all▁these▁cases	-10.3303
▁breath	-10.3319
▁maintain▁that	-10.3328
▁of▁speech	-10.3331
▁fellow▁citizens	-10.3333
▁sell	-10.3334
▁if▁in▁fact▁it	-10.3337
m▁sure	-10.334
▁agree▁with▁you	-10.3345
▁of▁these▁two	-10.3346
▁truthful	-10.3346
▁is▁a▁friend	-10.3346
led	-10.3351
▁beautiful▁thing	-10.3351
▁and▁beautiful	-10.3352
▁make▁us	-10.3352
▁the▁poets	-10.336
▁the▁kind	-10.3365
▁it▁may▁be	-10.3373
▁if▁it▁is▁not	-10.3376
▁it▁is▁clear	-10.3378
▁has▁been▁said	-10.338
▁fruit	-10.3381
▁than▁the▁one	-10.3385
▁censure	-10.3403
▁forbid	-10.3405
ation▁of	-10.3409
▁companion	-10.3412
▁ask▁me	-10.3412
▁Heracles	-10.3413
▁legislators	-10.3415
▁game	-10.3421
s▁to▁be	-10.3422
▁main	-10.3423
▁his▁sons	-10.3426
▁the▁problem	-10.3432
ther	-10.3434
▁in▁both	-10.3436
▁source	-10.3441
▁so▁that▁he	-10.3441
▁the▁great	-10.3446
▁quarrel	-10.3447
▁than▁to	-10.3453
▁the▁just	-10.3461
s▁something	-10.3462
▁imitations	-10.3462
▁he▁does▁not	-10.3466
▁admitted	-10.3469
▁and▁keep	-10.347
▁resemble	-10.3473
▁of▁pleasures	-10.3474
nyone▁who	-10.3474
▁to▁share	-10.3474
▁the▁friend	-10.3484
▁it▁be	-10.3484
▁division	-10.3487
▁affection	-10.3493
▁Then▁we	-10.3497
go	-10.3498
▁for▁us▁to	-10.3501
▁have▁to	-10.3502
ery	-10.3503
bout	-10.3504
▁slavery	-10.3505
▁everyone▁who	-10.3509
▁across	-10.351
▁walls	-10.3513
▁When▁the	-10.3514
▁endure	-10.3516
▁had▁no	-10.3518
▁non	-10.352
▁is▁most	-10.3524
▁rhetoric	-10.3525
▁make▁sure	-10.3534
▁herd	-10.3537
▁stars	-10.3537
▁whether▁the	-10.354
s▁better	-10.3543
▁educate	-10.3544
▁a▁sophist	-10.3545
▁ti	-10.3549
▁the▁reason▁why	-10.355
▁the▁skill	-10.355
▁that▁the▁gods	-10.3556
not	-10.3557
▁bother	-10.3559
▁than▁the▁others	-10.3565
▁sl	-10.3567
▁in▁others	-10.3568
▁say▁this	-10.3572
▁bold	-10.3576
▁production	-10.3585
▁some▁are	-10.3585
▁we▁are▁now	-10.3593
▁imagine	-10.3596
▁if▁you▁can	-10.3597
▁performed	-10.3598
▁has▁the	-10.3599
▁and▁see	-10.3599
▁mastered	-10.3601
▁has▁come	-10.3604
▁with▁the▁other	-10.3606
▁he▁must▁pay	-10.3611
▁most▁beautiful	-10.3612
▁conflict	-10.3613
▁going▁on	-10.3615
▁the▁wisest	-10.3615
po	-10.362
▁thing▁to▁do	-10.3621
▁to▁serve	-10.3623
▁enjoyment	-10.3624
▁tell▁the▁truth	-10.3625
▁absolute	-10.3627
▁to▁death	-10.363
▁of▁p	-10.3632
▁abroad	-10.3634
▁and▁many	-10.3635
▁contrast	-10.3639
▁month	-10.3642
▁and▁put	-10.3644
▁my▁opinion	-10.3649
▁need▁for	-10.365
▁worthy	-10.3652
▁equality	-10.3652
▁when▁it▁comes	-10.3653
▁aside	-10.3653
▁I▁see	-10.366
▁are▁just	-10.366
▁devoted	-10.3662
▁discern	-10.3668
▁guilty	-10.3669
▁guidance	-10.3675
▁banish	-10.3675
▁striking	-10.3675
▁obedience	-10.3675
▁excuse	-10.3675
▁silly	-10.3675
▁varieties	-10.3675
▁tragedy	-10.3675
▁food▁and▁drink	-10.3675
▁stood	-10.3675
▁insofar▁as▁it	-10.3675
▁resort	-10.3675
▁remarkable	-10.3676
▁envy	-10.3677
▁Pittacus	-10.3677
▁extraordinary	-10.3677
▁distribution	-10.3679
▁the▁same▁person	-10.368
▁Once	-10.3682
▁definitely	-10.3683
▁varied	-10.3683
▁passes	-10.3683
▁illness	-10.3685
▁said▁Cebes	-10.3686
▁as▁our	-10.3686
▁internal	-10.3686
▁permit	-10.3687
▁quite▁right	-10.3689
▁council	-10.3694
▁the▁letters	-10.3694
▁who▁can	-10.3696
▁this▁argument	-10.37
▁plainly	-10.3708
▁an▁enemy	-10.371
▁with▁some	-10.3712
▁experts	-10.3712
▁of▁both	-10.3713
▁because▁we	-10.3714
▁army	-10.3714
▁sit	-10.3715
op	-10.3718
▁in▁the▁opposite	-10.3725
▁offered	-10.3725
▁like▁it	-10.3727
▁rhythms	-10.3729
▁and▁being	-10.3731
▁being▁loved	-10.3733
s▁its	-10.3737
▁for▁the▁city	-10.374
▁resembles	-10.3741
▁they▁did	-10.3741
▁have▁given	-10.3741
▁permanent	-10.3742
▁beast	-10.3742
▁in▁number	-10.3743
▁our▁guardians	-10.3745
▁in▁my▁opinion	-10.3748
▁mostly	-10.3749
▁from▁the▁earth	-10.3751
▁largeness	-10.3752
▁and▁make	-10.3753
ed▁up	-10.3756
▁beg	-10.3756
▁is▁no	-10.376
s▁sake	-10.3762
▁compose	-10.3764
▁do▁you▁say	-10.3768
▁questioned	-10.3769
▁system	-10.3772
▁wings	-10.3776
▁arms	-10.3778
▁gymnastics	-10.3781
▁to▁look▁at	-10.3785
▁claim▁to▁be	-10.3803
▁but▁is	-10.3805
▁spirited	-10.3806
▁most▁of▁all	-10.3812
▁but▁in	-10.3813
▁seemed	-10.3822
▁good▁fortune	-10.3823
▁present▁in	-10.3828
▁of▁children	-10.3829
▁characteristic	-10.3831
▁gathering	-10.3834
▁attribute	-10.3834
▁What▁about▁the	-10.3841
▁you▁might	-10.3848
▁topics	-10.385
▁by▁far	-10.3853
▁precise	-10.3856
▁whether▁in	-10.3861
just	-10.3862
▁bonds	-10.3862
▁virtue▁is	-10.3863
▁of▁his▁life	-10.3869
▁how▁he	-10.3873
▁my▁mind	-10.3873
▁attribut	-10.3876
▁seeing▁that	-10.3877
▁none▁of▁the	-10.3878
▁for▁the▁body	-10.3878
▁maybe	-10.3878
▁cure	-10.3879
▁at▁that	-10.3881
▁prevented	-10.3889
▁our▁citizens	-10.3891
▁within▁the	-10.3894
ed▁into	-10.3897
▁I▁cannot	-10.39
▁realized	-10.3903
▁arts	-10.3922
▁popular	-10.3923
▁upon▁the	-10.3925
▁set▁up	-10.3927
▁in▁between	-10.3927
▁but▁you	-10.3938
▁a▁second	-10.394
▁falsely	-10.3944
▁are▁we▁to	-10.3946
▁And▁would	-10.3946
▁will▁come	-10.3949
ma	-10.3951
▁what▁you▁said	-10.3955
▁tyrannical	-10.3956
▁captain	-10.3956
▁mark	-10.3956
▁features	-10.3957
▁that▁he▁has	-10.3963
▁wrote	-10.3964
▁recently	-10.3967
▁contact▁with	-10.3969
▁Le	-10.3969
▁consider▁it	-10.397
▁of▁love	-10.397
▁hunger	-10.3974
▁we▁do▁not	-10.3977
▁wages	-10.3983
▁external	-10.3983
▁equal▁to	-10.3985
▁more▁beautiful	-10.3986
▁do▁you▁want	-10.3986
▁with▁its	-10.399
▁because▁the	-10.3992
ed▁for	-10.3994
▁inflicted	-10.3995
s▁an	-10.4
▁grand	-10.4
▁all▁other	-10.4001
▁merit	-10.4001
▁secret	-10.4002
▁both▁the	-10.4002
▁have▁come▁to▁be	-10.4004
▁serv	-10.4007
▁seat	-10.4008
▁the▁dead	-10.4011
Yes	-10.4015
ak	-10.4019
▁too▁much	-10.402
▁to▁try	-10.402
▁who▁knows	-10.4025
t▁make	-10.4028
▁afterwards	-10.403
▁but▁are	-10.4031
▁leads▁to	-10.4032
▁where▁the	-10.4033
▁in▁words	-10.4034
▁seed	-10.4037
▁what▁it	-10.4038
▁it▁turns▁out	-10.404
▁accuse	-10.4041
▁town	-10.4043
▁blend	-10.4047
▁We▁said	-10.4049
▁its▁nature	-10.4057
▁disposition	-10.4058
▁the▁fire	-10.4058
▁questioning	-10.4061
▁and▁even	-10.4063
▁deliberate	-10.4065
▁frequent	-10.4066
▁contained	-10.4068
▁arises	-10.4071
▁I▁agree	-10.4073
▁wander	-10.4074
▁have▁to▁be	-10.4079
▁many▁others	-10.4079
▁a▁guardian	-10.4081
▁immediate	-10.4082
▁so▁many	-10.4085
▁foul	-10.409
▁say▁that▁it▁is	-10.409
▁choruses	-10.4094
▁making▁it	-10.4101
▁demands	-10.4101
▁posit	-10.4102
▁sort▁of▁person	-10.4102
▁any▁of▁them	-10.4104
▁specific	-10.4109
▁empty	-10.4109
▁the▁underworld	-10.4109
▁built	-10.4109
▁prior	-10.4109
▁Hippocrates	-10.411
▁depth	-10.411
▁embrace	-10.411
▁Chaerephon	-10.411
▁warrior	-10.411
▁disaster	-10.411
▁sheep	-10.411
▁attractive	-10.411
▁corresponding	-10.411
▁Axiochus	-10.4111
▁Agamemnon	-10.4112
▁buy	-10.4114
▁in▁its▁turn	-10.4114
▁in▁a▁circle	-10.4114
▁human▁affairs	-10.4116
m▁saying	-10.4123
▁from▁childhood	-10.4124
▁one▁part	-10.4124
▁whatever▁else	-10.4125
▁all▁kinds	-10.4127
▁farming	-10.413
▁expressed	-10.4131
▁said▁Simmias	-10.4134
▁ears	-10.4136
▁which▁it▁is	-10.4136
▁by▁its	-10.414
▁these▁subjects	-10.4144
▁I▁heard	-10.4145
▁the▁task	-10.4148
▁answers	-10.4148
▁prize	-10.4151
▁cutting	-10.4152
▁invite	-10.4154
▁arrange	-10.4154
▁supervise	-10.4154
▁of▁the▁dialogue	-10.4155
▁You▁can	-10.4158
▁that▁thing	-10.4158
▁to▁have▁a	-10.4159
▁surrounding	-10.4163
▁this▁subject	-10.4166
▁of▁water	-10.4166
▁such▁a▁person	-10.4174
▁the▁use	-10.4175
▁wretched	-10.4177
▁weakness	-10.4177
▁turned▁out	-10.4179
▁wall	-10.4183
▁delighted	-10.4188
▁their▁opposites	-10.4189
▁pity	-10.4192
▁of▁many	-10.4193
▁witnesses	-10.4195
▁traditional	-10.4197
▁the▁very▁thing	-10.42
▁attached	-10.4203
▁happen▁to	-10.4203
▁what▁sort	-10.4207
▁and▁education	-10.4207
▁a▁bit	-10.4207
▁What▁you▁say	-10.4214
▁more▁important	-10.4216
▁to▁be▁called	-10.4219
▁detail	-10.4226
▁more▁easily	-10.4226
ving	-10.4232
ue	-10.4232
▁some▁things	-10.4234
▁by▁force	-10.4236
▁like▁them	-10.4242
▁of▁money	-10.4249
ound	-10.4253
▁other▁crafts	-10.4256
▁reported	-10.4264
▁feature	-10.4265
▁the▁line	-10.4265
▁in▁each	-10.4268
▁for▁virtue	-10.4268
▁imposed	-10.4269
▁Hav	-10.4274
▁institutions	-10.4275
▁it▁out	-10.4276
▁you▁do▁not	-10.4276
▁but▁because	-10.4278
▁part▁of▁virtue	-10.4278
s▁clear▁that	-10.4279
▁greatest	-10.4281
▁created	-10.4284
▁impression	-10.4291
▁the▁people▁who	-10.4293
▁the▁things▁we	-10.4294
ll▁do	-10.4298
▁spring	-10.4301
▁the▁same▁place	-10.4304
▁unequal	-10.4306
oun	-10.4307
▁definition	-10.4314
s▁at	-10.4318
▁to▁receive	-10.4318
▁he▁should▁be	-10.432
▁we▁said▁before	-10.4321
▁passed	-10.4322
▁of▁their▁own	-10.4323
▁addressed	-10.4325
▁something▁is	-10.4328
▁but▁when	-10.4339
▁what▁follows	-10.4353
▁it▁can▁be	-10.4355
▁people▁do	-10.4355
▁they▁all	-10.4361
ain	-10.4362
▁fa	-10.4363
▁surround	-10.4365
d▁like	-10.4366
▁improve	-10.4372
▁from▁him	-10.4373
rg	-10.4373
s▁into	-10.4378
▁for▁one	-10.4379
▁give▁them	-10.4379
▁is▁the▁opposite	-10.4379
▁Cretan	-10.438
▁call▁him	-10.4382
▁is▁present	-10.4383
▁we▁are▁not	-10.4385
▁But▁let	-10.4385
▁and▁the▁like	-10.439
▁or▁do	-10.4395
▁syllable	-10.4399
▁and▁live	-10.4399
s▁obvious	-10.4401
▁of▁another	-10.4408
▁compete	-10.4408
▁share▁of	-10.4408
▁in▁a▁city	-10.4412
▁were▁not	-10.4423
▁the▁part▁that	-10.4424
time	-10.4429
▁the▁one▁is	-10.4431
▁live▁in	-10.4431
▁fo	-10.4438
▁have▁just	-10.4443
▁cease	-10.4444
▁them▁from	-10.4449
▁circle	-10.4449
▁utterly	-10.4449
▁might▁say	-10.445
▁arranged	-10.445
▁wrestling	-10.4451
▁him▁as	-10.4452
▁the▁old	-10.4454
▁suit	-10.4456
▁pour	-10.4463
▁male	-10.4464
▁opponent	-10.4465
▁to▁be▁found	-10.4465
▁and▁no	-10.4468
Adeimantus	-10.4468
▁distance	-10.4469
▁included	-10.4473
▁rescue	-10.4477
but	-10.4478
▁your▁speech	-10.448
▁the▁center	-10.4481
▁give▁you	-10.4481
▁finish	-10.4488
▁foreigner	-10.449
s▁soul	-10.449
▁neglected	-10.4492
ox	-10.4496
▁will▁be▁a	-10.4496
▁and▁yet	-10.4504
▁Is▁that	-10.4504
▁is▁now	-10.4507
▁without▁a	-10.4515
▁the▁men	-10.4515
sense▁perception	-10.452
▁only▁to	-10.4521
t▁we▁say▁that	-10.4523
▁we▁use	-10.4523
▁a▁long▁time	-10.4524
▁herself	-10.4524
▁of▁whom	-10.4524
▁an▁answer	-10.4525
▁uniform	-10.4525
▁our▁soul	-10.453
▁sharp	-10.453
▁we▁need	-10.4531
▁inappropriate	-10.4531
▁it▁up	-10.4531
▁injury	-10.4532
▁we▁think	-10.4534
▁and▁thus	-10.4535
▁drag	-10.4538
▁hears	-10.4538
▁courts	-10.454
uch	-10.4541
▁to▁recognize	-10.4542
▁oligarchy	-10.4542
▁the▁same▁kind	-10.4542
▁dishonor	-10.4546
▁exhibit	-10.4549
▁base	-10.4549
▁a▁word	-10.4554
▁into▁two	-10.4557
▁connect	-10.4558
▁greatly	-10.4559
▁market	-10.4563
▁in▁that▁way	-10.4563
▁flee	-10.4564
▁daily	-10.4564
▁grandfather	-10.4564
▁price	-10.4564
▁Aristophanes	-10.4564
▁dividing	-10.4564
▁criticism	-10.4564
▁Nevertheless	-10.4564
▁imitating	-10.4564
▁broad	-10.4565
▁big	-10.4566
▁this▁very▁thing	-10.4566
▁basic	-10.4567
▁immortality	-10.4567
▁have▁already	-10.4569
▁variety	-10.457
n▁any▁case	-10.4571
▁Maybe	-10.4571
▁bitter	-10.4571
▁exceed	-10.4573
▁of▁education	-10.4575
▁men▁of	-10.4576
▁vessel	-10.4576
▁sober	-10.4576
▁to▁spend	-10.4576
▁human▁life	-10.4577
▁W	-10.4578
▁qu	-10.458
▁finer	-10.4581
▁musician	-10.4581
▁And▁how	-10.4582
S	-10.4583
▁one▁of▁us	-10.4585
▁conceived	-10.4589
▁additional	-10.459
▁promised	-10.4591
▁frequently	-10.4592
s▁property	-10.4593
▁holy	-10.4594
▁wish▁to	-10.4599
▁followers	-10.4602
▁is▁the▁case	-10.4603
▁for▁the▁soul	-10.4605
▁carrying	-10.4608
ust▁as	-10.4608
▁more▁shameful	-10.4608
▁until▁they	-10.4613
▁tend	-10.4613
▁stopped	-10.4616
▁extended	-10.4616
▁originally	-10.4618
▁on▁the▁contrary	-10.462
▁an▁evil	-10.462
▁your▁answer	-10.4622
▁the▁future	-10.4623
▁soil	-10.4623
▁one▁who▁does	-10.4623
▁it▁could	-10.4623
▁in▁my▁view	-10.4625
▁we▁get	-10.4629
▁between▁us	-10.4637
▁to▁reach	-10.4638
▁bro	-10.4638
▁The▁other	-10.4639
ear	-10.4644
▁an▁orator	-10.4645
▁nowhere	-10.4645
▁a▁liar	-10.4648
▁quiet	-10.4648
▁to▁come▁to	-10.4655
▁in▁question	-10.4657
▁as▁they▁say	-10.4666
▁thousands	-10.4668
▁their▁city	-10.4675
▁to▁something	-10.4676
▁not▁a	-10.4678
▁his▁property	-10.4678
▁accounts	-10.468
▁When▁you	-10.4681
▁have▁an	-10.4682
▁lessons	-10.4685
▁to▁express	-10.4686
▁member	-10.4688
ha	-10.4689
nother	-10.4693
▁hated	-10.4697
▁your▁friend	-10.4699
▁ma	-10.4706
▁reward	-10.4707
▁strongly	-10.4714
▁to▁suffer	-10.4717
▁associates	-10.4722
▁discussions	-10.4723
▁connection	-10.4725
▁disturbance	-10.4726
▁applied	-10.4727
▁for▁me▁to	-10.4728
▁no▁difference	-10.4729
▁the▁desire	-10.4731
ed▁out	-10.4737
▁contract	-10.474
▁for▁they	-10.4743
▁is▁made	-10.4748
▁seeking	-10.4749
▁each▁individual	-10.4752
▁criterion	-10.4754
od	-10.4755
▁the▁pleasure	-10.4755
▁wants	-10.4756
eas	-10.4759
▁draws	-10.4763
which	-10.4767
▁brought▁to	-10.4773
▁he▁thought	-10.4773
▁his▁mind	-10.4774
n▁unjust▁person	-10.4779
▁demonstrate	-10.4783
▁of▁human	-10.4785
▁take▁the	-10.4786
▁forces	-10.4792
▁it▁follows	-10.4795
▁and▁leave	-10.4799
▁presence	-10.48
▁the▁origin	-10.4804
▁one▁has	-10.4805
▁he▁speaks	-10.4808
▁is▁bad	-10.4808
▁weaker	-10.481
▁What▁do	-10.4812
▁to▁exist	-10.4817
▁come▁about	-10.4818
▁statesman	-10.4819
▁if▁there	-10.4821
▁the▁theory	-10.4821
▁protect	-10.4823
▁the▁e	-10.4825
▁He▁will	-10.4825
▁unit	-10.4826
▁If▁they	-10.4829
▁involved	-10.4829
▁handed	-10.483
▁drawing	-10.4831
▁bond	-10.4834
▁outdo	-10.4839
▁fifty	-10.484
▁I▁certainly▁do	-10.4843
▁you▁agree	-10.4845
▁other▁cities	-10.4847
▁as▁if▁he▁were	-10.4848
▁offense	-10.4853
▁deceiving	-10.4861
▁occupation	-10.4862
▁all▁such▁things	-10.4863
▁or▁something	-10.4865
▁orators	-10.4868
art	-10.4872
▁directions	-10.4878
be	-10.4878
▁around▁the	-10.4878
▁I▁know▁that	-10.4881
▁invisible	-10.4889
▁how▁they	-10.4891
▁are▁we▁to▁say	-10.4893
▁the▁temple	-10.4893
▁of▁himself	-10.4899
▁by▁virtue	-10.4902
▁from▁the▁others	-10.4909
▁mankind	-10.491
▁of▁becoming	-10.491
▁the▁pleasures	-10.4915
▁to▁distinguish	-10.4915
▁the▁product	-10.492
▁scrutiny	-10.4922
▁strikes	-10.4927
▁though▁I	-10.4929
▁with▁no	-10.493
▁one▁who▁has	-10.4931
▁the▁heavens	-10.4932
▁our▁souls	-10.4937
▁tradition	-10.4946
▁impiety	-10.4947
▁how▁it	-10.4949
▁remaining	-10.495
▁that▁virtue▁is	-10.4953
▁to▁be▁so	-10.4954
nyone	-10.4955
▁gather	-10.4956
▁than▁this	-10.4957
▁introduced	-10.4959
▁the▁care	-10.4959
▁say▁that▁the	-10.496
▁a▁legislator	-10.4964
▁reason▁and	-10.4965
▁the▁assumption	-10.4967
▁wife	-10.4968
▁did▁you	-10.4969
▁flattery	-10.4971
▁has▁made	-10.4974
▁to▁pass	-10.4983
▁a▁sense	-10.499
▁skilled	-10.4991
▁suffered	-10.4994
▁pattern	-10.4999
▁each▁one	-10.5
▁translation	-10.5004
▁relief	-10.501
▁luck	-10.5012
▁seem▁to▁me	-10.5012
▁Socrates▁said	-10.5013
▁families	-10.5013
▁growth	-10.502
▁all▁over	-10.502
▁lyre	-10.5024
▁respective	-10.5024
▁pay▁attention	-10.5025
▁continues	-10.5025
▁descendants	-10.5039
▁species	-10.504
▁reckon	-10.504
▁camp	-10.504
▁route	-10.504
▁Aphrodite	-10.504
▁target	-10.504
▁theoretical	-10.504
▁like▁and▁unlike	-10.5041
▁passing	-10.5041
hold	-10.5043
▁compulsion	-10.5043
▁In▁addition	-10.5043
▁Obviously	-10.5043
▁passive	-10.5043
▁tells▁us	-10.5044
▁cook	-10.5045
▁stupidity	-10.5045
▁there▁are▁many	-10.5048
▁of▁the▁god	-10.5049
▁achievement	-10.505
▁takes▁place	-10.5053
▁protection	-10.5054
▁City▁Wardens	-10.5054
ve▁made	-10.5055
▁corruption	-10.5058
▁Do▁you▁mean	-10.5059
▁to▁achieve	-10.5062
▁none▁of▁them	-10.5062
▁deliberately	-10.5064
▁detailed	-10.5067
▁normal	-10.5069
▁engage	-10.5071
▁old▁men	-10.5072
▁collect	-10.5074
▁the▁age	-10.5074
▁tongue	-10.5076
▁the▁judges	-10.5076
▁managed	-10.5083
▁for▁a▁long▁time	-10.5085
▁the▁women	-10.5087
▁gathered	-10.5089
▁unwillingly	-10.509
▁a▁free▁man	-10.509
▁verse	-10.5094
▁mixture▁of	-10.5094
▁maintained	-10.51
▁their▁power	-10.5101
▁goes▁on	-10.5102
▁with▁another	-10.5103
▁continued	-10.5111
▁among▁us	-10.5112
▁true▁judgment	-10.5113
▁so▁that▁the	-10.5114
▁from▁others	-10.5114
▁Then▁is	-10.5117
▁relating	-10.5118
▁tears	-10.5121
▁readily	-10.5125
ing▁you	-10.5129
▁them▁out	-10.5133
▁reason▁why	-10.5135
▁agreeing	-10.5137
▁are▁called	-10.5141
▁to▁the▁end	-10.5142
▁believed▁to▁be	-10.5147
▁to▁be▁the	-10.5154
▁admired	-10.5154
▁for▁the▁rest	-10.5154
▁reports	-10.5157
▁likely▁that	-10.5159
▁akin	-10.516
▁After▁this	-10.5169
▁As▁it▁is	-10.5171
▁spirits	-10.5179
▁that▁they▁were	-10.5179
▁only▁a▁few	-10.5179
▁favors	-10.518
▁could▁not▁be	-10.5184
▁to▁the▁other	-10.5185
▁Then▁you	-10.5185
▁They▁must	-10.519
▁something▁bad	-10.519
▁If▁a	-10.5191
▁with▁my	-10.5191
t▁need	-10.5198
▁dragg	-10.5199
▁from▁the▁gods	-10.5202
▁girls	-10.5202
▁According	-10.5203
▁construct	-10.5207
ug	-10.521
eia	-10.5216
▁fools	-10.5218
▁festival	-10.5218
▁of▁me	-10.522
▁But▁how	-10.522
▁by▁lot	-10.5223
▁it▁does▁not	-10.5224
▁remarks	-10.5225
▁even▁the	-10.5228
▁in▁our▁city	-10.5229
▁parts▁of▁the	-10.5233
▁assert	-10.5235
▁is▁fine	-10.5237
▁when▁a	-10.5241
▁neighbor	-10.525
▁in▁the▁first	-10.5251
▁writings	-10.5252
▁every▁kind	-10.5256
▁by▁themselves	-10.526
▁you▁said▁that	-10.5261
▁to▁work	-10.5263
▁reache	-10.5264
▁had▁come	-10.5264
▁lots	-10.5269
▁and▁just	-10.5276
▁while▁they	-10.5277
▁lead▁to	-10.528
▁we▁need▁to	-10.5281
▁by▁it	-10.5287
▁so▁that▁we	-10.5288
▁look▁at▁it	-10.5288
▁ta	-10.529
▁with▁one	-10.5294
▁achieved	-10.5296
▁complex	-10.5297
▁statues	-10.5299
wo	-10.53
▁one▁could	-10.5311
▁in▁court	-10.5312
▁pursuits	-10.5315
▁neighbors	-10.5319
▁may▁not	-10.532
▁they▁think	-10.532
▁to▁ensure	-10.5323
▁what▁you▁think	-10.5325
s▁more	-10.5327
▁Any	-10.533
▁would▁do	-10.5331
▁inter	-10.5331
▁to▁obey	-10.5333
▁of▁her	-10.5333
▁of▁the▁truth	-10.5335
▁to▁some	-10.5335
▁People	-10.5339
▁far▁more	-10.534
▁female	-10.5341
s▁clear	-10.5343
▁bind	-10.5344
king	-10.5344
▁L	-10.535
▁coming▁into	-10.5353
▁hold▁of	-10.5353
▁the▁length	-10.5355
▁pupils	-10.5356
▁to▁treat	-10.5359
▁fi	-10.5359
▁human▁being	-10.5362
▁do▁anything	-10.5362
▁of▁two	-10.5364
▁and▁all▁other	-10.5369
▁sides	-10.5374
ll▁never	-10.5374
▁to▁preserve	-10.5375
▁worship	-10.5379
▁of▁argument	-10.5379
so	-10.5382
▁gone	-10.5383
▁generals	-10.5386
▁truest	-10.539
▁judgments	-10.5395
▁performance	-10.5395
▁at▁it	-10.5399
▁sketch	-10.5404
▁Th	-10.5418
▁quietly	-10.542
ed▁at	-10.5425
▁the▁only▁one	-10.5425
▁Socratic	-10.5426
▁man▁is	-10.5427
▁if▁you▁were	-10.5427
▁a▁harmony	-10.5428
▁of▁a▁man	-10.5429
▁ought▁to▁have	-10.5429
▁disobeys	-10.5433
▁in▁truth	-10.5434
▁circles	-10.5439
▁leave▁it	-10.5439
▁Greece	-10.5442
who	-10.5445
▁concerning▁the	-10.5446
▁they▁won	-10.5455
▁enjoys	-10.5457
▁owe	-10.5457
▁wood	-10.5457
▁associat	-10.5459
▁of▁making	-10.5459
uite	-10.5466
▁whereas▁the	-10.5467
▁beliefs	-10.5473
▁have▁come	-10.5474
▁of▁no	-10.5476
▁of▁mine	-10.5478
▁consequence	-10.5481
▁making▁a	-10.5488
▁none▁of▁these	-10.5493
▁better▁and	-10.5493
▁the▁others▁are	-10.5496
▁temper	-10.5499
▁breed	-10.5506
▁wind	-10.5506
▁eternal	-10.5515
▁methods	-10.5518
▁of▁expertise	-10.5523
▁idle	-10.5531
ei	-10.5531
▁compelled▁to	-10.5531
our	-10.5532
er▁and	-10.5534
▁split	-10.5534
▁cloak	-10.5538
▁twenty	-10.5539
▁mean▁that	-10.554
▁resemblance	-10.554
▁equipment	-10.554
▁Sisyphus	-10.554
▁contend	-10.554
▁compound	-10.554
▁vengeance	-10.554
▁spell	-10.554
▁magnificent	-10.554
▁review	-10.554
▁lyric	-10.554
▁honest	-10.554
▁necessities	-10.554
▁the▁slightest	-10.554
▁contemptible	-10.554
▁refutation	-10.554
▁Thebes	-10.5541
▁gold▁and▁silver	-10.5541
▁preface	-10.5541
▁anybody▁else	-10.5541
▁dinner	-10.5541
▁sentence	-10.5541
▁tolerate	-10.5542
▁the▁moment	-10.5543
▁his▁way	-10.5543
▁Has	-10.5544
▁shall▁we▁say	-10.5544
▁fell	-10.5544
▁dry	-10.5545
▁The▁latter	-10.5545
▁market▁place	-10.5545
▁fever	-10.5546
▁In▁the▁same▁way	-10.5546
▁companions	-10.5547
▁in▁what▁way	-10.5548
▁astonishing	-10.5549
▁spite	-10.5554
▁advanced	-10.5555
▁in▁the▁body	-10.5555
▁attach	-10.5557
▁and▁take	-10.5559
▁import	-10.556
▁or▁rather	-10.5563
▁star	-10.5564
▁of▁medicine	-10.5564
▁indicated	-10.5567
▁carry▁on	-10.5568
▁to▁grasp	-10.5568
▁ship	-10.5569
▁lest	-10.557
▁refused	-10.5571
▁for▁some▁time	-10.5571
▁issues	-10.5571
▁the▁ruler	-10.5572
▁most▁easily	-10.5573
▁perfection	-10.5574
▁about▁which	-10.5577
▁This▁is▁why	-10.5577
▁go▁through	-10.5578
▁broken	-10.5588
▁human▁nature	-10.559
▁recognized	-10.559
▁lower	-10.5593
▁answer▁me	-10.5597
▁alien	-10.5601
▁The▁one	-10.5601
▁matters▁of	-10.5603
▁yield	-10.5606
▁a▁poet	-10.5608
▁to▁help	-10.561
ing▁of	-10.5612
▁to▁decide	-10.5612
▁way▁to	-10.5616
▁good▁people	-10.5617
▁assumption	-10.5618
▁of▁the▁deceased	-10.5622
▁disciplined	-10.5624
▁speaking▁of	-10.5629
▁asked▁him	-10.563
▁deceived	-10.5631
pro	-10.5632
▁my▁view	-10.5636
▁allies	-10.5637
▁revolution	-10.5638
▁the▁boys	-10.5641
▁a▁common	-10.5643
ing▁out	-10.5643
▁I▁replied	-10.5646
▁surprise	-10.5646
ing▁themselves	-10.5649
▁recollect	-10.5651
▁district	-10.5652
▁privately	-10.5653
▁the▁goddess	-10.5654
di	-10.5654
▁the▁slave	-10.5654
▁while▁other	-10.5654
▁the▁living	-10.5655
▁makes▁him	-10.5657
▁make▁me	-10.5659
▁in▁two	-10.5659
▁abuse	-10.5663
▁are▁like	-10.5664
▁gained	-10.5669
▁servants	-10.5669
▁establishing	-10.5669
▁in▁hand	-10.5669
▁we▁agreed▁that	-10.5673
▁But▁the	-10.5677
ps	-10.568
▁anyone▁else▁who	-10.5681
▁perceptions	-10.5683
s▁best	-10.5687
▁cultivated	-10.5689
▁to▁give▁advice	-10.5694
▁rank	-10.57
▁burn	-10.5702
▁wanting	-10.5703
▁kingly	-10.5703
▁use▁it	-10.5708
▁that▁everyone	-10.5711
▁the▁principle	-10.5713
▁the▁fine▁is	-10.5714
▁you▁and▁me	-10.5719
ron	-10.572
▁are▁all	-10.5726
▁where▁they	-10.5733
▁hi	-10.5738
▁the▁barbarians	-10.574
▁mu	-10.574
▁rivers	-10.5741
▁their▁fathers	-10.5743
▁it▁should	-10.5747
▁upward	-10.5747
▁strike	-10.5749
▁concede	-10.5754
▁Then▁it	-10.5757
t▁do	-10.5759
ed▁that	-10.5762
▁measured	-10.5763
▁they▁want	-10.5764
ail	-10.5768
▁expertise▁in	-10.5769
▁pursued	-10.5769
▁such▁a▁thing▁a	-10.5771
▁on▁the▁other	-10.5773
▁recommend	-10.5781
▁the▁same▁name	-10.5781
▁trade	-10.5784
▁how▁we	-10.579
▁of▁pain	-10.5792
▁if▁he▁has	-10.5799
▁disobey	-10.5799
▁and▁become	-10.58
▁about▁what▁is	-10.5806
▁in▁place	-10.5809
ll▁tell▁you	-10.5812
▁fashioned	-10.5818
▁of▁ignorance	-10.5818
▁by▁us	-10.5818
▁and▁show	-10.5819
▁And▁surely	-10.5827
▁medical	-10.5831
▁indicate	-10.5835
▁of▁three	-10.5837
▁others▁are	-10.5837
▁no▁one▁will	-10.5837
▁sorts	-10.5839
▁in▁control	-10.5842
▁tyrants	-10.5847
▁to▁believe	-10.5849
▁and▁mother	-10.5849
▁on▁your	-10.5852
▁title	-10.5856
▁them▁with	-10.5858
▁good▁at	-10.5861
though	-10.5864
▁mold	-10.5866
▁is▁never	-10.587
▁the▁ground	-10.5872
▁and▁hearing	-10.5876
▁of▁laws	-10.5876
▁made▁them	-10.5879
s▁see	-10.588
▁wins	-10.588
▁democratic	-10.5881
▁is▁the▁same▁as	-10.5887
▁to▁praise	-10.5888
▁him▁with	-10.589
▁to▁make▁them	-10.5892
d▁by▁the	-10.5893
▁the▁same▁way	-10.5894
▁effects	-10.5896
▁them▁together	-10.5897
▁helping	-10.5899
▁dances	-10.5903
▁between▁the▁two	-10.5904
▁to▁nature	-10.5914
ward	-10.5917
▁and▁less	-10.5919
▁the▁human	-10.5922
▁to▁remain	-10.5927
▁that▁injustice	-10.5931
▁presented	-10.5939
▁version	-10.5942
▁acquiring	-10.5942
▁services	-10.5943
▁Do▁you▁know	-10.5944
ii	-10.5948
▁for▁the▁purpose	-10.5956
▁room	-10.596
▁sister	-10.5963
▁made▁it	-10.5968
▁to▁the▁god	-10.597
▁of▁a▁city	-10.597
▁and▁answer	-10.5973
▁is▁added	-10.5974
▁this▁art	-10.5974
▁part▁in	-10.5974
▁troubles	-10.5975
▁together▁and	-10.5975
▁a▁natural	-10.5976
▁doctrines	-10.5978
▁assist	-10.5979
▁is▁the▁same	-10.5981
▁appears▁to▁be	-10.5981
▁barbarians	-10.5983
He	-10.5989
If	-10.5989
▁the▁reputation	-10.599
▁a▁real	-10.599
▁is▁there▁any	-10.5992
▁able▁to▁make	-10.5992
▁vulgar	-10.5994
▁enslave	-10.5995
▁All▁this	-10.5996
being	-10.5996
▁prevail	-10.5997
t▁there	-10.5998
▁pi	-10.6
▁added▁to	-10.6002
▁and▁desires	-10.6004
▁contact	-10.6005
▁before▁you	-10.6006
▁for▁it▁is	-10.6009
▁attitude	-10.6011
▁chose	-10.6013
▁profess	-10.6014
ice	-10.6017
▁participate	-10.6018
▁frame	-10.6024
▁grown	-10.6025
▁and▁when▁they	-10.6027
▁to▁Athens	-10.6028
▁partner	-10.6032
▁is▁worth	-10.6032
au	-10.6033
▁proposed	-10.6035
▁cultivate	-10.6035
▁fr	-10.604
▁approve	-10.6042
▁mental	-10.6043
▁universal	-10.6045
▁feast	-10.6045
▁pr	-10.6046
lthough	-10.6047
▁all▁the▁gods	-10.6047
▁knock	-10.605
▁demonstration	-10.6051
▁fine▁things	-10.6052
▁him▁in	-10.6056
▁severe	-10.6057
▁founding	-10.6058
▁grace	-10.6061
▁and▁the▁same	-10.6062
▁minor	-10.6066
▁pursuing	-10.6066
▁link	-10.6066
▁specified	-10.6066
▁enthusiasm	-10.6067
▁on▁the▁one▁hand	-10.6067
▁unworthy	-10.6067
▁intense	-10.6067
▁retreat	-10.6067
▁For▁my▁part	-10.6067
▁carpentry	-10.6067
▁respond	-10.6067
▁hatred	-10.6067
▁Consequently	-10.6067
▁refuting	-10.6067
▁moisture	-10.6067
▁Hephaestus	-10.6067
▁point▁of▁view	-10.6067
▁vital	-10.6067
▁cleansing	-10.6067
▁information	-10.6067
▁cool	-10.6069
▁assessment	-10.6069
▁Themistocles	-10.6069
▁entitled	-10.6069
▁exhortation	-10.6069
▁lust	-10.607
▁my▁good▁man	-10.607
▁factor	-10.607
▁should▁take	-10.6074
▁to▁meet	-10.6074
▁instrument	-10.6074
▁for▁this▁reason	-10.6075
▁and▁harmony	-10.6075
▁creation	-10.6075
▁defined	-10.6077
▁bid	-10.6078
▁lawful	-10.6079
▁regimen	-10.608
▁construction	-10.608
▁moder	-10.6083
▁verbal	-10.6084
▁spread	-10.6085
▁wax	-10.6086
▁firmly	-10.6086
▁It▁follows	-10.6089
▁respectively	-10.609
▁nurtured	-10.6092
▁myth	-10.6094
▁harmonious	-10.6095
▁regular	-10.61
▁charges	-10.6102
▁could▁have	-10.6102
▁made▁a	-10.6103
▁directly	-10.6103
▁whether▁we	-10.6108
▁to▁stand	-10.6109
▁point▁to	-10.6111
▁but▁we	-10.6111
▁hopes	-10.6113
▁such▁matters	-10.6114
▁lend	-10.6114
▁laughing	-10.6116
▁a▁wise▁man	-10.6117
s▁through	-10.6121
▁clever▁at	-10.6124
▁every▁other	-10.6125
▁their▁mother	-10.6127
▁to▁begin▁with	-10.6128
▁cover	-10.6131
▁the▁first▁thing	-10.6137
▁getting▁a	-10.6137
ean	-10.6144
▁run▁away	-10.6147
▁show▁you	-10.6148
▁assess	-10.6149
▁he▁will▁be	-10.6151
▁But▁then	-10.6152
▁perceived	-10.6154
▁will▁say	-10.6161
▁regarded▁a	-10.6163
▁suggested	-10.6164
▁by▁means▁of▁the	-10.6164
▁accord	-10.6166
▁a▁hundred	-10.6168
▁the▁eye	-10.6169
▁filling	-10.6169
▁into▁it	-10.617
s▁exactly	-10.6171
▁Let▁me	-10.6174
▁students	-10.6176
▁usage	-10.6177
are	-10.6178
▁elected	-10.6179
▁they▁must▁be	-10.6181
▁arrangement	-10.6182
▁closer	-10.6183
▁the▁pious	-10.6184
▁of▁everything	-10.6187
▁to▁kill	-10.6188
▁burning	-10.6188
▁the▁science	-10.6189
▁has▁ever	-10.619
▁about▁Homer	-10.6193
▁more▁than▁a	-10.6197
▁dialectic	-10.6199
ier	-10.6199
▁I▁would▁say	-10.6201
▁meal	-10.6201
▁a▁charge	-10.6203
▁administer	-10.6205
▁someone▁who▁has	-10.6211
▁area	-10.6211
▁from▁the▁body	-10.6212
▁orbits	-10.6215
▁your▁soul	-10.6216
▁their▁sons	-10.6217
▁being▁so	-10.6223
▁forth	-10.6227
▁spot	-10.6229
▁his▁death	-10.6229
▁he▁likes	-10.6232
▁the▁child	-10.6237
▁true▁opinion	-10.6239
▁some▁of▁the	-10.6244
▁covered	-10.6245
▁would▁you▁say	-10.6248
▁the▁virtue	-10.625
▁strangers	-10.6252
▁fifth▁century	-10.6253
▁surface	-10.6253
▁athletes	-10.6253
▁smallness	-10.6257
▁it▁possible	-10.626
▁good▁ones	-10.6267
▁be▁surprised	-10.6277
▁the▁place	-10.6278
▁temple	-10.6281
▁in▁his▁soul	-10.6281
▁treating	-10.6282
▁maintain	-10.6283
s▁in▁the	-10.6283
▁the▁young▁men	-10.6284
▁you▁two	-10.6295
▁prosecute	-10.6297
▁returned	-10.6298
▁condemned	-10.6301
▁save	-10.6301
t▁the▁same	-10.6302
men	-10.6307
▁of▁Homer	-10.6309
▁until▁he	-10.6316
epi	-10.6317
▁the▁remaining	-10.6318
▁since▁they▁are	-10.6319
▁for▁every	-10.6323
▁suffers	-10.6323
▁Persian	-10.6325
▁to▁mention	-10.6325
▁orderly	-10.6327
▁of▁the▁young	-10.6328
▁to▁behave	-10.6329
▁it▁looks	-10.6337
▁processes	-10.6338
▁set▁of	-10.634
▁saw▁that	-10.6342
▁exercis	-10.6342
▁he▁makes	-10.6342
▁clear▁that	-10.6343
her	-10.6345
▁say▁something	-10.6349
▁this▁was	-10.635
▁as▁his	-10.6351
▁bone	-10.6354
▁the▁definition	-10.6354
▁make▁it▁clear	-10.6355
▁ask▁you	-10.6358
ted	-10.6358
▁one▁kind	-10.6358
▁rush	-10.6359
▁section	-10.6366
▁range	-10.6366
▁familiar	-10.6371
▁or▁more	-10.6374
ub	-10.6377
way	-10.638
ll▁try	-10.638
t▁mean	-10.6386
▁debate	-10.6388
▁shoes	-10.6388
▁N	-10.6389
▁that▁can▁be	-10.6389
▁breaking	-10.6389
▁proceeds	-10.6394
ag	-10.6398
▁on▁this▁point	-10.6399
▁the▁c	-10.6399
▁and▁there	-10.6399
▁project	-10.6401
▁valuable	-10.6401
▁as▁if▁it▁were	-10.6405
▁deceive	-10.6409
▁is▁possible	-10.6409
▁he▁ought▁to	-10.6412
▁making▁them	-10.6414
▁what▁he▁has	-10.6414
▁is▁beautiful	-10.6415
▁girl	-10.6421
▁if▁one▁is	-10.6421
▁bird	-10.6423
▁of▁injustice	-10.6424
▁standards	-10.6424
▁the▁Persians	-10.6443
▁divisions	-10.6444
▁La	-10.6444
▁for▁your	-10.6448
▁I▁mentioned	-10.645
▁restrain	-10.6451
▁persuasive	-10.6457
▁limited	-10.6459
end	-10.6461
▁tell▁him	-10.6461
t▁want	-10.6463
▁to▁know▁what	-10.6468
▁record	-10.6468
▁propose	-10.6469
▁excess	-10.6469
▁life▁of	-10.647
▁paint	-10.647
▁not▁worth	-10.6471
▁and▁fear	-10.6476
▁of▁the▁many	-10.6476
▁stretch	-10.6476
▁to▁the▁same	-10.6489
▁still▁be	-10.649
▁damage	-10.649
s▁done	-10.6497
▁surpass	-10.6501
▁his▁brother	-10.6501
▁its▁way	-10.6503
▁exception	-10.6503
▁we▁should▁be	-10.6513
▁have▁become	-10.6515
▁ends	-10.6519
ed▁as	-10.6524
▁the▁class	-10.6531
▁is▁different	-10.6535
ments	-10.6535
ness▁of	-10.6535
Well	-10.6536
▁have▁learned	-10.654
▁gods▁and	-10.6544
▁all▁men	-10.6555
▁surprised	-10.6558
▁pa	-10.6559
▁no▁man	-10.6559
▁convicted	-10.656
▁chief	-10.656
▁for▁fear	-10.6561
▁sixty	-10.6562
ed▁upon	-10.6567
▁much▁better	-10.6568
▁build	-10.6569
▁go▁ahead	-10.657
▁deprive	-10.6571
▁flood	-10.6572
gotten	-10.6573
▁pride	-10.6578
▁perish	-10.6579
▁be▁a	-10.658
▁what▁happened	-10.6582
▁for▁yourself	-10.6582
▁authors	-10.6585
▁depends	-10.6588
▁se	-10.6589
▁impose	-10.6589
▁introduce	-10.6596
s▁been	-10.6598
▁shorter	-10.6599
▁loving	-10.6599
▁that▁there▁is▁a	-10.66
s▁this	-10.6604
▁what▁we▁are	-10.6604
▁ridicule	-10.6607
▁accurate	-10.6607
▁from▁those	-10.6611
▁and▁ask	-10.6613
▁mortals	-10.6613
▁debt	-10.6614
▁male▁and▁female	-10.6614
▁excessive	-10.6616
▁prophet	-10.6617
▁from▁the▁other	-10.6619
▁omit	-10.662
▁intellect	-10.6622
▁funeral	-10.6622
▁Melesias	-10.6622
▁moreover	-10.6622
▁urging	-10.6622
▁valor	-10.6622
▁situated	-10.6622
▁undisciplined	-10.6622
▁geometer	-10.6622
▁Neither	-10.6622
▁sailors	-10.6622
▁Heraclitus	-10.6622
▁Demodocus	-10.6622
▁affirm	-10.6622
▁insignificant	-10.6622
▁legitimate	-10.6622
▁conceal	-10.6622
▁impulse	-10.6622
▁deficiency	-10.6622
▁vice▁versa	-10.6622
▁quotation	-10.6622
▁convincing	-10.6622
▁busy	-10.6622
▁innocent	-10.6622
▁in▁such▁a▁way	-10.6622
▁talent	-10.6622
▁Think	-10.6623
▁is▁found▁guilty	-10.6623
ustice	-10.6623
▁forbidden	-10.6623
▁perpetual	-10.6623
▁you▁and▁your	-10.6623
▁response	-10.6623
▁need▁of	-10.6624
▁Try	-10.6624
▁Sicilian	-10.6625
▁storm	-10.6626
▁erotic▁love	-10.6626
▁uneducated	-10.6626
▁fish	-10.6626
▁to▁the▁body	-10.663
▁refusing	-10.6632
▁tame	-10.6633
▁firm	-10.6633
▁arguing	-10.6635
O	-10.6635
▁hurt	-10.6636
▁march	-10.6637
▁of▁wealth	-10.6639
▁likely▁to▁be	-10.6641
side	-10.6642
▁Or▁does	-10.6643
▁of▁the▁art	-10.6644
aring	-10.6645
▁There▁is▁no	-10.6649
▁the▁Athenian	-10.6652
▁at▁home	-10.666
▁learns	-10.6663
▁restraint	-10.6664
t▁yet	-10.667
▁enslaved	-10.6671
s▁the▁same	-10.6674
▁to▁pleasure	-10.6677
▁in▁order▁that	-10.6678
▁give▁him	-10.6678
▁try▁to▁find▁out	-10.6681
ile	-10.6682
▁transformation	-10.6684
▁forgive	-10.6684
▁ancestral	-10.6689
▁remembered	-10.6691
▁my▁question	-10.6692
▁take▁it▁that	-10.6695
▁inform	-10.6697
▁the▁whole▁city	-10.6697
t▁say	-10.6697
▁give▁an▁account	-10.6703
▁referred▁to	-10.6703
▁may▁not▁be	-10.6705
▁the▁one▁we	-10.6705
▁in▁Hades	-10.6709
▁is▁hard	-10.671
▁train	-10.6714
s▁side	-10.6715
▁any▁further	-10.6718
▁these▁points	-10.672
▁for▁others	-10.672
▁in▁philosophy	-10.6721
▁so▁he	-10.6722
▁the▁unlimited	-10.6722
▁falling	-10.6731
▁to▁return	-10.6732
▁are▁the▁same	-10.6737
▁handle	-10.6738
▁are▁looking▁for	-10.674
▁until▁we	-10.674
▁But▁he	-10.6741
▁investigated	-10.6741
▁proceeding	-10.6741
▁would▁it▁be	-10.6747
▁an▁individual	-10.675
▁to▁men	-10.6753
▁the▁male	-10.6753
▁of▁the▁law	-10.6755
▁for▁he	-10.676
▁his▁children	-10.6762
▁what▁we▁say	-10.6762
▁where▁he	-10.6764
▁to▁the▁soul	-10.6765
▁fact	-10.6765
▁his▁craft	-10.6766
▁improved	-10.6766
▁or▁whatever	-10.6768
▁Then▁I	-10.6768
▁to▁perform	-10.677
▁freed	-10.677
▁their▁parents	-10.6771
▁served	-10.6773
▁athletics	-10.6775
▁on▁them	-10.6777
▁harmony▁with	-10.6783
rew	-10.6783
▁afraid▁that	-10.6788
▁wounds	-10.6793
▁is▁advantageous	-10.6795
▁for▁these	-10.6796
rch	-10.6797
▁sequence	-10.6798
▁the▁trouble	-10.6798
▁opportunity	-10.6799
▁For▁the	-10.6803
▁we▁maintain	-10.6803
▁will▁have▁to	-10.6808
▁valued	-10.6816
▁by▁him	-10.6822
▁higher	-10.6826
▁after▁this	-10.6826
▁meter	-10.683
▁possibility	-10.6833
ene	-10.6834
▁of▁the▁people	-10.6836
▁people▁say	-10.6837
▁is▁able▁to	-10.684
▁than▁any	-10.6842
▁about▁justice	-10.6843
▁their▁names	-10.6847
▁engaging	-10.6847
▁his▁parents	-10.6851
▁you▁are▁not	-10.6851
▁fifth	-10.6852
▁and▁had	-10.6857
▁doing▁something	-10.6858
▁indicates	-10.6858
▁the▁mother	-10.6859
▁Then▁he	-10.6859
▁a▁good▁one	-10.686
▁them▁up	-10.6866
▁in▁nature	-10.6867
▁plant	-10.6868
▁suits	-10.6869
me	-10.6873
▁do▁what	-10.6874
▁the▁soul▁of	-10.6875
▁would▁he	-10.6875
▁could▁never	-10.688
▁to▁be▁happy	-10.6886
▁ranks	-10.6889
kai	-10.689
▁the▁conclusion	-10.6894
▁I▁have▁heard	-10.6895
▁liable	-10.6896
▁But▁tell▁me	-10.6906
▁to▁defend	-10.6908
▁Be	-10.6909
▁to▁set	-10.691
▁able▁to▁do	-10.691
▁this▁thing	-10.6911
▁statue	-10.6913
▁about▁virtue	-10.6916
▁of▁gold	-10.6918
▁temperance▁is	-10.6921
▁towards▁the	-10.6922
▁is▁admirable	-10.6925
▁parts▁of▁virtue	-10.6931
▁the▁damage	-10.6931
▁a▁craft	-10.694
▁is▁he	-10.6943
▁one▁of▁you	-10.6945
▁him▁to▁be	-10.6945
▁helped	-10.6945
▁I▁hope	-10.6947
long	-10.6947
▁verb	-10.6957
▁of▁names	-10.6959
▁the▁movement	-10.6961
▁in▁honor	-10.6967
▁what▁is▁said	-10.6967
▁definite	-10.6975
▁j	-10.6976
▁they▁are▁all	-10.6979
▁eye	-10.698
old	-10.6984
▁about▁you	-10.6985
▁other▁animals	-10.6986
▁a▁law	-10.6993
▁compar	-10.6994
▁the▁blood	-10.6994
▁where▁it	-10.6997
▁about▁these	-10.7003
▁fortune	-10.701
▁Or▁what	-10.7014
▁conclusions	-10.7023
▁take▁place	-10.7024
▁in▁heaven	-10.7033
▁knows▁how	-10.7036
▁all▁the▁parts	-10.7038
▁put▁up▁with	-10.7039
▁in▁need	-10.704
▁the▁life▁of▁a	-10.7042
▁called▁the	-10.7044
▁doing▁this	-10.7059
▁account▁of▁the	-10.7059
▁Perhaps▁you	-10.706
▁to▁call▁it	-10.7066
▁so▁I	-10.7068
▁li	-10.7068
▁sinews	-10.7069
▁his▁wisdom	-10.7071
▁plans	-10.7072
▁of▁Dion	-10.7075
▁to▁itself	-10.7079
▁led▁to	-10.708
▁eat	-10.708
re▁looking▁for	-10.7091
▁ignore	-10.7093
▁to▁everyone	-10.7102
M	-10.7104
▁amazed	-10.7104
▁going▁to▁say	-10.7104
▁to▁change	-10.7111
True	-10.7111
▁remind	-10.7112
▁kn	-10.7115
▁loses	-10.7116
▁its▁parts	-10.7118
▁one▁would	-10.712
▁he▁saw	-10.7122
▁about▁him	-10.7122
▁and▁similar	-10.7124
▁member▁of▁the	-10.7126
t▁believe	-10.7128
▁the▁courageous	-10.7129
▁adopted	-10.713
▁the▁victim	-10.713
▁never▁be	-10.7132
▁because▁you▁are	-10.7132
▁you▁give	-10.7132
▁summer	-10.7133
▁or▁different	-10.7136
▁whom▁we	-10.7138
▁wit	-10.7139
▁in▁something	-10.7139
▁understand▁that	-10.7139
▁to▁harm	-10.714
▁that▁a▁man	-10.714
▁a▁kind	-10.7142
▁than▁those	-10.7144
ae	-10.7145
▁caus	-10.7146
▁gently	-10.7146
▁proportions	-10.715
▁profitable	-10.7154
▁disorder	-10.7154
▁endurance	-10.7154
▁what▁is▁good	-10.7154
▁he▁wants	-10.7155
▁property▁class	-10.7163
▁dialogues	-10.7165
▁philosophy▁is	-10.7166
▁drop	-10.7168
▁my▁life	-10.7176
▁of▁great	-10.7178
▁resolve	-10.7179
s▁off	-10.7184
▁suited	-10.7185
▁outstanding	-10.7185
▁Now▁let	-10.7187
▁prepare	-10.719
▁generate	-10.7191
▁conceive	-10.7192
▁plent	-10.7193
▁is▁full	-10.7194
▁suffice	-10.7195
▁criticiz	-10.7195
▁rewards	-10.7199
ative	-10.7203
▁a▁gift	-10.7203
▁springs	-10.7206
▁devise	-10.7207
▁the▁kind▁that	-10.7207
▁limbs	-10.7208
▁portray	-10.721
▁asleep	-10.721
▁minute	-10.721
▁bronze	-10.721
▁at▁other▁times	-10.721
▁article	-10.721
▁analogy	-10.721
▁dissimilar	-10.721
▁specify	-10.721
▁guest	-10.721
hadamanthus	-10.721
▁Aristides	-10.721
▁indestructible	-10.721
▁swear	-10.721
▁unhealthy	-10.721
▁descend	-10.721
▁sophisticated	-10.721
▁the▁biggest	-10.721
▁the▁wealthiest	-10.721
▁Orpheus	-10.721
▁prophecy	-10.721
▁deliberating	-10.7211
▁flock	-10.7211
▁Diotima	-10.7211
▁proverbial	-10.7211
▁rock	-10.7211
▁theories	-10.7211
▁at▁one▁time	-10.7211
▁estate	-10.7211
▁omitted	-10.7211
▁ugliness	-10.7211
▁in▁whatever▁way	-10.7211
▁engaged▁in	-10.7211
▁shout	-10.7211
▁what▁you▁want	-10.7213
▁law▁abiding	-10.7213
▁I▁mean▁that	-10.7213
▁Hector	-10.7213
▁finest	-10.7213
▁Though	-10.7215
rt	-10.7215
▁deficient	-10.7215
ides	-10.7216
▁preservation	-10.7217
▁reflection	-10.7217
▁boast	-10.7219
▁of▁Dionysius	-10.7219
▁to▁catch	-10.722
▁emerge	-10.722
▁get▁a▁share	-10.722
▁insofar▁as▁the	-10.7221
▁collection	-10.7225
▁well▁governed	-10.7225
▁an▁old▁man	-10.7225
▁the▁sophists	-10.7227
▁Hera	-10.7228
t▁think▁you	-10.7229
▁begotten	-10.7229
▁lucky	-10.723
▁would▁think	-10.723
▁doing▁it	-10.7233
▁revolutions	-10.7233
▁body▁and▁soul	-10.7234
▁no▁longer▁be	-10.7234
▁one▁that▁is	-10.7234
t▁that▁so	-10.7236
▁appreciate	-10.7237
▁it▁goes	-10.7238
▁through▁sight	-10.7239
▁and▁re	-10.724
▁those▁who▁know	-10.724
▁bow	-10.7242
▁to▁move	-10.7242
▁that▁every	-10.7246
▁who▁would	-10.7248
▁very▁difficult	-10.725
▁good▁will	-10.7253
▁proves	-10.7256
▁recover	-10.7256
▁in▁these▁cases	-10.7257
▁Co	-10.7259
▁having▁a	-10.726
▁golden	-10.7261
▁when▁I▁was	-10.7262
▁determin	-10.7262
s▁nature	-10.7266
▁the▁other▁two	-10.7267
son▁of	-10.7267
▁within▁itself	-10.7269
▁preserved	-10.7271
▁contains	-10.7271
▁most▁of▁the	-10.7272
▁at▁sea	-10.7272
▁released	-10.7279
▁than▁they	-10.7284
lit	-10.7285
▁subsequent	-10.7286
▁made▁him	-10.7288
▁get▁rid▁of	-10.7288
▁convention	-10.729
▁behalf	-10.729
▁notice▁that	-10.729
▁I▁expect	-10.7294
▁to▁one	-10.7302
▁provisions	-10.7305
▁same▁thing	-10.7307
▁and▁were	-10.7309
▁different▁kind	-10.731
▁I▁have▁no	-10.7312
▁that▁one▁should	-10.7313
▁whenever▁they	-10.7314
▁the▁moon	-10.7317
▁may▁well▁be	-10.7318
▁the▁most▁part	-10.7319
▁his▁feet	-10.7321
es▁and	-10.7327
▁invented	-10.733
les	-10.733
▁can▁you	-10.7332
▁other▁men	-10.7333
▁the▁new	-10.7336
▁your▁opinion	-10.7337
▁facts	-10.7341
▁within▁him	-10.7348
▁host	-10.735
▁put▁up	-10.735
▁As▁a	-10.7353
▁Ca	-10.7359
▁wear	-10.736
▁sole	-10.7362
▁the▁facts	-10.7363
▁show▁that	-10.7368
▁or▁be	-10.7371
▁Crete	-10.7372
▁realm	-10.7372
▁survive	-10.7374
▁all▁of▁these	-10.7375
▁no▁good	-10.7378
▁their▁father	-10.7381
▁behave	-10.7381
▁crown	-10.7384
▁following▁way	-10.7385
ēs	-10.7392
▁on▁their▁own	-10.7393
▁remember▁that	-10.7395
▁at▁times	-10.7396
ris	-10.7402
worth▁mentioning	-10.7412
ve▁come	-10.7412
▁sciences	-10.7416
▁contrary▁to▁the	-10.7417
▁distinctions	-10.7431
▁of▁the▁one	-10.7432
▁ideal	-10.744
pi	-10.7441
▁the▁property	-10.7441
▁touching	-10.7442
▁of▁motion	-10.7447
▁I▁suspect	-10.7447
▁grip	-10.7448
▁shrines	-10.7449
▁know▁everything	-10.7449
▁his▁lover	-10.745
▁the▁sum	-10.745
▁Then▁again	-10.7451
ed▁with▁the	-10.7456
tra	-10.7458
▁to▁stop	-10.7461
▁He▁must	-10.7462
▁an▁argument	-10.7464
▁impos	-10.7465
▁of▁all▁kinds	-10.7468
▁turns▁out	-10.7469
ping	-10.747
▁Shall▁we▁say	-10.7475
▁marrow	-10.7478
▁abilities	-10.748
ded	-10.7482
▁a▁soul▁that	-10.7485
▁of▁poetry	-10.7491
▁ran	-10.7491
▁think▁so	-10.7492
▁if▁I▁can	-10.7494
▁contradicting	-10.7495
according▁to▁law	-10.7498
▁Athenians	-10.7501
ath	-10.7501
▁persuading	-10.7502
▁if▁it▁has	-10.7503
▁to▁grow	-10.7504
▁remained	-10.7505
▁instances	-10.7508
▁an▁end	-10.7512
▁as▁your	-10.7515
▁block	-10.7515
▁refute	-10.7517
▁contribute	-10.7521
▁the▁things▁he	-10.7521
▁remark	-10.7523
ve▁now	-10.7525
▁dwell	-10.7528
▁buildings	-10.7528
▁become▁a	-10.7534
▁months	-10.7537
▁pupil	-10.7539
▁local	-10.754
▁hands▁of	-10.7542
ria	-10.7545
▁island	-10.7545
▁Er	-10.7545
ism	-10.7548
▁to▁play	-10.7548
▁use▁them	-10.7548
▁of▁heaven	-10.755
▁minds	-10.7551
▁he▁sees	-10.7552
▁the▁less	-10.7557
▁And▁if▁he	-10.7558
▁his▁hands	-10.7559
▁of▁every	-10.7559
▁labors	-10.7559
▁the▁ones▁we	-10.756
▁rise	-10.7561
▁rings	-10.7566
▁about▁anything	-10.7566
re▁doing	-10.7566
▁the▁love	-10.7567
▁compulsory	-10.7568
▁nurture	-10.7571
▁decisions	-10.7577
▁Dionysus	-10.758
▁I▁do▁not▁know	-10.7582
▁for▁those▁who	-10.7583
▁to▁honor	-10.7589
▁in▁cities	-10.7593
▁our▁lives	-10.7596
▁its▁power	-10.7598
▁Then▁it▁is	-10.7598
t▁want▁to	-10.7598
d▁better	-10.7599
▁absent	-10.7601
▁oratory▁is	-10.7601
▁rid▁of	-10.7605
▁along▁the	-10.7608
▁so▁that▁you	-10.7609
▁characteristics	-10.7611
ck	-10.7613
▁painters	-10.7614
▁the▁job	-10.7617
▁that▁question	-10.7618
▁the▁Spartan	-10.762
▁commander	-10.7624
▁each▁person	-10.7626
▁coming▁to	-10.7628
▁good▁judgment	-10.763
ud	-10.7631
▁for▁anyone	-10.7632
▁it▁is▁called	-10.7635
ze	-10.7636
▁are▁better	-10.764
▁apart▁from▁the	-10.7646
▁the▁practice	-10.7647
▁happens▁to▁be	-10.7647
▁if▁any	-10.7649
▁Then▁we▁must	-10.7649
act	-10.7649
▁desert	-10.765
▁Muse	-10.7651
▁and▁does▁not	-10.7652
▁So▁the▁one	-10.7655
▁convictions	-10.7656
▁pleasure▁in	-10.7663
▁put▁to▁death	-10.7664
▁fla	-10.7664
▁look▁into	-10.7668
▁the▁things▁they	-10.7668
P	-10.7668
▁convince	-10.7668
▁understand▁it	-10.7673
▁a▁public	-10.7673
▁be▁careful	-10.7675
▁tell▁me▁this	-10.7676
▁of▁friendship	-10.7679
▁aware▁of	-10.7681
▁certainly▁does	-10.7688
▁some▁other▁way	-10.7691
▁theme	-10.7695
▁skilled▁in	-10.7695
▁you▁knew	-10.7696
ance▁with▁the	-10.7698
▁my▁argument	-10.7698
ius	-10.7698
▁shadows	-10.7701
s▁of▁war	-10.771
▁off▁the	-10.7712
▁the▁topic	-10.7712
▁I▁think▁it▁is	-10.7713
▁gl	-10.7716
▁armed	-10.7717
▁either▁in	-10.7718
▁agree▁to▁this	-10.7722
▁have▁something	-10.7724
▁the▁company	-10.7727
▁know▁it	-10.7731
▁the▁house	-10.7736
▁garden	-10.7736
▁unaware	-10.774
Of▁course	-10.774
▁I▁did▁not	-10.7744
▁from▁one	-10.7744
▁the▁arts	-10.7747
▁empire	-10.7748
▁But▁this	-10.7751
▁greedy	-10.7759
▁and▁that▁it▁is	-10.776
▁When▁I	-10.7761
▁to▁try▁to	-10.7761
▁since▁I	-10.7768
▁come▁back	-10.7773
▁in▁being	-10.7773
▁flows	-10.7776
▁that▁does	-10.7778
▁confer	-10.7778
▁the▁wrong	-10.7779
▁swift	-10.778
▁seize	-10.7786
ip	-10.7787
▁to▁cure	-10.7788
▁for▁anything	-10.7792
▁consult	-10.7794
mon	-10.7796
▁We▁say	-10.7797
has	-10.7798
▁briefly	-10.7802
▁armor	-10.7804
▁his▁words	-10.7805
▁a▁ruler	-10.7807
▁it▁is▁necessary	-10.781
▁where▁we	-10.7812
▁initial	-10.7814
▁apparent	-10.7815
▁those▁who▁were	-10.7828
▁shameless	-10.7833
▁stages	-10.7833
▁convey	-10.7834
▁expense	-10.7835
▁hidden	-10.7835
▁stock	-10.7835
▁fountain	-10.7835
▁fundamental	-10.7835
▁Like	-10.7835
▁context	-10.7835
▁Heraclides	-10.7835
▁honey	-10.7835
▁identify	-10.7835
▁pitch	-10.7835
▁assault	-10.7835
▁naked	-10.7835
▁inscribed	-10.7835
▁subordinate	-10.7835
▁matter▁of▁fact	-10.7835
▁Nestor	-10.7835
▁approval	-10.7835
▁the▁one▁that▁is	-10.7835
▁Patroclus	-10.7835
▁purity	-10.7835
▁Nonetheless	-10.7835
▁Theodotes	-10.7835
▁exposition	-10.7836
▁retain	-10.7836
▁jump	-10.7836
▁brought▁about	-10.7836
▁vigorous	-10.7836
▁harvest	-10.7836
▁drone	-10.7836
▁partnership	-10.7836
▁are▁perceiving	-10.7836
▁impart	-10.7836
▁misery	-10.7836
▁responsibility	-10.7836
▁resident▁alien	-10.7836
▁terror	-10.7836
▁starting▁point	-10.7837
▁comic	-10.7837
▁the▁killer	-10.7837
▁alteration	-10.7837
▁tough	-10.7837
▁customary	-10.7838
▁conspicuous	-10.7839
▁Clitophon	-10.7839
▁Market▁Wardens	-10.7839
▁living▁beings	-10.784
▁sport	-10.784
▁cla	-10.7841
▁connected▁with	-10.7841
▁suddenly	-10.7841
being▁or▁essence	-10.7843
▁earn	-10.7844
▁perplexed	-10.7844
▁the▁next▁point	-10.7844
▁She	-10.7846
▁restored	-10.7846
▁written▁down	-10.7846
▁of▁the▁Greeks	-10.7846
little▁while▁ago	-10.7847
▁organized	-10.7847
▁angry▁with	-10.7849
▁the▁two▁of▁you	-10.785
eally	-10.7851
▁fresh	-10.7851
▁assuming	-10.7851
▁and▁tell▁me	-10.7855
▁era	-10.7859
▁modest	-10.7859
▁any▁longer	-10.7861
ve▁already	-10.7863
▁made▁up▁of	-10.7864
▁joy	-10.7864
▁to▁complete	-10.7866
▁of▁rhetoric	-10.7867
▁sufferings	-10.7872
▁candidates	-10.7872
▁eating	-10.7875
▁to▁the▁state	-10.7879
▁spirited▁part	-10.7879
▁entire▁state	-10.7881
▁likenesses	-10.7881
▁covering	-10.7883
▁an▁equal	-10.7883
▁penetrate	-10.7884
▁without▁knowing	-10.7886
▁wash	-10.7887
▁of▁theirs	-10.7888
▁to▁give▁you	-10.7888
▁because▁of▁this	-10.7895
▁shepherds	-10.7896
▁more▁valuable	-10.7896
▁people▁have	-10.7897
▁the▁wicked	-10.7898
▁do▁that	-10.7899
▁syllables	-10.7899
▁the▁community	-10.79
▁that▁it▁is▁just	-10.7902
▁and▁knowledge	-10.7905
▁weather	-10.7909
▁distributed	-10.7911
▁an▁Athenian	-10.7914
▁scheme	-10.7914
▁want▁to▁be	-10.7917
▁sta	-10.7917
▁openly	-10.7917
▁of▁impiety	-10.7918
▁the▁particular	-10.7919
▁figures	-10.7921
▁aim▁at	-10.7922
▁annoyed	-10.7924
▁mountains	-10.7924
▁the▁business▁of	-10.7927
▁in▁learning	-10.7928
▁make▁you	-10.7929
▁sailing	-10.7934
▁walking	-10.7934
▁ahead	-10.7937
▁the▁rule	-10.7938
▁happening	-10.7938
▁the▁three	-10.794
▁I▁ask	-10.7942
▁None	-10.7942
▁sho	-10.7945
▁within▁it	-10.7945
▁to▁do▁something	-10.7946
▁against▁me	-10.7946
▁It▁look	-10.7949
▁and▁many▁others	-10.7953
▁Surely▁you	-10.7955
▁car	-10.7955
▁by▁those▁who	-10.7961
▁a▁poor	-10.7963
▁delivered	-10.7963
▁in▁other	-10.797
▁of▁land	-10.797
come	-10.7983
▁put▁on	-10.7983
▁But▁there	-10.7983
▁I▁consider	-10.7984
▁to▁marry	-10.7986
▁mastery	-10.7988
▁differs	-10.7992
▁that▁one▁is	-10.7994
ft	-10.7995
▁of▁the▁stronger	-10.7999
▁farmer	-10.8
▁to▁ask▁you	-10.8001
▁if▁you▁have	-10.8002
▁sharing	-10.8002
s▁our	-10.8003
▁before▁he	-10.8006
d▁never	-10.8007
▁these▁were	-10.8011
▁From▁the	-10.8012
▁also▁a	-10.8016
▁in▁the▁other	-10.8016
ory	-10.8023
▁to▁stay	-10.8023
▁just▁this	-10.8028
▁seen▁to▁be▁fine	-10.8029
▁races	-10.8033
▁his▁mother	-10.8037
▁that▁be	-10.804
▁I▁wonder	-10.8043
▁appearances	-10.8051
▁we▁agreed	-10.8051
oil	-10.8055
▁purge	-10.8061
▁If▁then	-10.8062
▁my▁soul	-10.8062
▁as▁they▁do	-10.8063
▁of▁mind	-10.8063
▁you▁know▁what	-10.8064
▁could▁you	-10.8064
▁it▁as▁a	-10.8064
▁must▁always	-10.8065
mong	-10.8067
▁appearing	-10.8068
▁is▁ever	-10.8072
▁its▁citizens	-10.8073
▁challenge	-10.8074
▁the▁country	-10.8074
▁the▁battle	-10.8077
▁on▁his▁own	-10.8079
▁prescribed	-10.808
▁hunt	-10.8081
tial	-10.8082
▁the▁best▁thing	-10.8084
▁two▁parts	-10.8088
▁the▁female	-10.8092
▁our▁state	-10.8092
▁believe▁it	-10.8094
▁all▁the▁same	-10.8098
▁spiritual	-10.81
▁left▁to	-10.8104
one▁or▁the▁other	-10.8106
t▁you▁know	-10.8107
We	-10.8108
▁But▁I▁think	-10.8112
▁standard	-10.8114
▁the▁maker	-10.8114
▁the▁author	-10.8116
▁represented	-10.8118
▁is▁useful	-10.8119
▁only▁in	-10.8119
▁prospect	-10.812
▁would▁be▁a	-10.8124
▁must▁always▁be	-10.813
▁than▁another	-10.8131
▁quite▁a	-10.8134
▁this▁law	-10.8139
▁bed	-10.814
ness▁of▁names	-10.8144
▁And▁it▁is	-10.8144
▁they▁will▁be	-10.8144
▁accused	-10.8144
▁heads	-10.8145
▁in▁writing	-10.8148
▁growing	-10.8149
▁expresse	-10.8154
▁harming	-10.8154
▁right▁now	-10.8166
▁enjoyed	-10.8166
▁some▁kind	-10.8166
▁a▁reputation	-10.8171
▁from▁having	-10.8174
▁to▁do▁anything	-10.8179
▁give▁the	-10.8183
▁their▁natural	-10.8183
▁remembering	-10.8184
▁And▁also	-10.8187
▁though▁they	-10.8187
▁a▁similar	-10.8191
▁contracts	-10.8192
▁their▁enemies	-10.8194
▁tested	-10.8195
▁Will▁you	-10.8198
▁good▁looking	-10.8203
▁belief▁that	-10.8206
▁Odyssey	-10.8212
▁the▁other▁side	-10.8214
▁technique	-10.8218
▁mistakes	-10.8221
▁promises	-10.8226
▁that▁it▁has	-10.823
▁season	-10.8232
▁an▁example	-10.8236
▁whom▁you	-10.8238
▁problems	-10.8241
▁what▁do▁you▁say	-10.8242
ations	-10.8244
s▁friends	-10.8245
▁do▁you▁think▁it	-10.8245
up	-10.8246
▁heard▁this	-10.8247
▁we▁have▁said	-10.8249
▁tell▁them	-10.8255
ing▁into	-10.8257
▁to▁the▁laws	-10.8257
▁most▁likely	-10.8258
▁ambition	-10.8258
▁advance	-10.8263
▁multitude	-10.8265
▁their▁friends	-10.8266
▁these▁questions	-10.8268
▁institution	-10.8271
▁fix	-10.8276
▁one▁form	-10.8277
▁with▁itself	-10.8282
▁if▁a	-10.8286
▁Syracuse	-10.8287
▁two▁types	-10.8288
▁prompt	-10.829
▁a▁mixture	-10.8291
▁Hades	-10.8292
▁the▁advantage	-10.8292
▁not▁only▁in	-10.8296
▁some▁sort	-10.8296
▁harmed	-10.8298
▁thing▁of▁all	-10.83
▁festivals	-10.83
▁on▁us	-10.8303
▁whom▁I	-10.8312
▁the▁function	-10.8312
▁to▁observe	-10.8313
▁of▁action	-10.8317
▁are▁bad	-10.8324
▁bad▁ones	-10.8335
▁up▁the	-10.834
▁enormous	-10.834
▁laugh▁at	-10.8342
▁failing	-10.8343
▁must▁also	-10.8346
▁Because▁if	-10.8346
s▁bad	-10.835
pt	-10.835
▁most▁serious	-10.8356
▁found▁in	-10.8357
▁while▁you	-10.836
▁you▁ever	-10.8362
▁The▁gods	-10.8364
▁the▁good▁is	-10.8366
▁of▁soul	-10.8366
▁we▁are▁saying	-10.8367
gra	-10.8368
▁suspect	-10.8369
▁unique	-10.8372
▁a▁master	-10.8373
▁to▁take▁part▁in	-10.8381
▁salvation	-10.8383
▁limits	-10.8383
▁the▁position	-10.8386
▁one▁day	-10.839
▁differently	-10.8392
▁narrative	-10.8394
right	-10.8395
▁or▁anything	-10.8396
tract	-10.8397
▁seemed▁to▁me	-10.8402
▁charms	-10.8405
▁to▁care	-10.8405
▁damages	-10.8409
▁now▁call	-10.8409
▁two▁feet	-10.841
▁his▁laws	-10.841
▁river	-10.8412
▁up▁a	-10.8412
▁we▁going▁to▁say	-10.8413
▁clean	-10.8417
▁to▁cultivate	-10.8417
▁religio	-10.8419
▁point▁in	-10.8422
▁text	-10.8424
▁extend	-10.8425
▁and▁proper	-10.8425
now	-10.843
▁be▁willing	-10.8431
▁certainly▁be	-10.8434
▁asking▁you	-10.8436
▁prose	-10.8437
▁deed	-10.8438
▁the▁rules	-10.8446
▁this▁is▁not	-10.8449
▁that▁he▁knows	-10.8451
▁a▁complete	-10.8453
▁evident	-10.8454
▁conquer	-10.8455
▁capture	-10.8456
▁slip	-10.8458
▁to▁be▁done	-10.8458
ral	-10.8461
▁set▁over	-10.8461
▁the▁gift	-10.8462
▁oracle	-10.8462
▁complain	-10.8462
▁beget	-10.8462
▁all▁its	-10.8463
▁good▁enough	-10.8466
▁correspond	-10.8468
▁a▁constitution	-10.8469
▁ten▁years	-10.8471
gg	-10.8472
▁The▁reason	-10.8472
▁in▁him	-10.8475
▁Listen	-10.8476
▁these▁reasons	-10.8477
▁of▁the▁Same	-10.848
▁I▁thought▁that	-10.8484
▁rare	-10.8485
▁before▁us	-10.8486
▁Troy	-10.8488
▁free▁men	-10.8489
▁a▁cobbler	-10.8491
▁expressions	-10.8493
▁dread	-10.8495
▁for▁myself	-10.8495
▁compelling	-10.8496
▁exhort	-10.8497
▁reduc	-10.8498
▁slavish	-10.8499
▁of▁truth	-10.8499
ai	-10.85
▁proverb	-10.85
▁liquid	-10.85
▁same▁is▁true	-10.85
emember	-10.8501
▁ritual	-10.8501
▁wool	-10.8501
▁preamble	-10.8502
▁focus	-10.8502
▁observing	-10.8502
▁exploit	-10.8502
▁imprisonment	-10.8502
▁composing	-10.8502
▁disregard	-10.8502
▁shield	-10.8502
▁principal	-10.8502
▁conjunction	-10.8502
▁testimony	-10.8502
▁the▁marketplace	-10.8502
▁Aeschylus	-10.8502
▁observation	-10.8502
▁Asclepius	-10.8502
▁expedition	-10.8502
▁qualification	-10.8502
▁Imagine	-10.8502
▁obscure	-10.8502
▁Beauty	-10.8502
▁Daedalus	-10.8502
▁undertaking	-10.8502
▁Darius	-10.8502
▁I▁dare▁say	-10.8502
▁a▁rhapsode	-10.8502
▁in▁many▁places	-10.8502
▁Anyway	-10.8502
▁satisfaction	-10.8502
▁elaborate	-10.8502
▁the▁saying▁goes	-10.8503
▁caring▁for	-10.8503
▁grew	-10.8503
▁Later	-10.8503
▁riddl	-10.8503
▁intimate	-10.8504
ld	-10.8504
▁laughter	-10.8504
▁indication	-10.8504
▁You▁will	-10.8504
▁amusing	-10.8504
▁comedy	-10.8504
▁nearby	-10.8505
▁assent	-10.8505
▁Thucydides	-10.8505
▁back▁and▁forth	-10.8505
▁Likewise	-10.8506
▁Pausanias	-10.8506
▁reasonably	-10.8507
▁outline	-10.8507
▁Must	-10.8507
▁Whereas	-10.8507
▁unreasonable	-10.8507
▁k	-10.8508
▁bear▁in▁mind	-10.8508
t▁let	-10.8509
▁his▁neighbor	-10.8509
▁God▁willing	-10.8509
▁inspiration	-10.851
▁In▁my▁view	-10.851
▁conversely	-10.851
▁one▁by▁one	-10.8511
▁assertion	-10.8512
▁of▁human▁beings	-10.8515
▁seduc	-10.8517
izing	-10.8517
▁unpleasant	-10.8518
▁acceptable	-10.8519
▁the▁same▁state	-10.8522
ade	-10.8522
▁indict	-10.8523
▁very▁few	-10.8524
▁said▁Ctesippus	-10.8525
▁the▁unjust	-10.8526
▁the▁voice	-10.8527
▁Not▁at▁all	-10.8529
▁through▁hearing	-10.8529
▁presents	-10.8529
▁that▁we▁were	-10.853
▁to▁look	-10.8531
▁to▁add	-10.8535
ized	-10.8541
▁a▁teacher	-10.8544
▁similarity	-10.8549
▁these▁arguments	-10.8549
▁makers	-10.855
▁necessary▁to	-10.855
▁my▁advice	-10.8551
▁fearing	-10.8551
rai	-10.8552
▁survived	-10.8553
▁afraid▁of	-10.8553
▁this▁much	-10.8553
▁like▁him	-10.8555
▁godlike	-10.8555
hē	-10.8556
▁Even▁so	-10.8556
▁lawless	-10.8558
▁stripp	-10.856
▁an▁army	-10.8565
▁differences	-10.8566
▁trainer	-10.8566
▁pair▁of	-10.8567
▁declared	-10.8568
▁thesis	-10.8569
s▁life	-10.857
▁the▁motion	-10.8571
▁those▁which▁are	-10.8574
▁to▁write	-10.8578
▁of▁Sparta	-10.8578
▁op	-10.8579
▁When▁a▁man	-10.858
▁into▁account	-10.8581
▁look▁after	-10.8585
▁majority	-10.8585
▁must▁have▁been	-10.8587
▁The▁result▁is	-10.8592
▁point▁out	-10.8597
▁door	-10.8597
▁to▁themselves	-10.8597
▁The▁second	-10.8597
▁a▁gentleman	-10.8598
▁this▁is▁why	-10.8598
▁murderer	-10.8599
▁I▁will▁tell▁you	-10.86
▁of▁Protagoras	-10.86
▁middle	-10.8604
▁disciplines	-10.8607
▁with▁those	-10.8609
ility	-10.8613
▁are▁there	-10.8616
▁throughout▁the	-10.8618
▁begging	-10.862
▁or▁both	-10.862
▁their▁nature	-10.8624
▁So▁far	-10.8625
▁refuted	-10.8625
▁deprived▁o	-10.8627
▁either▁of▁them	-10.8634
▁of▁nature	-10.8635
▁of▁what▁we	-10.8636
▁your▁mind	-10.8638
▁you▁mentioned	-10.8638
▁the▁Sun	-10.8641
▁in▁anything	-10.8642
▁acquisition	-10.8642
▁fact▁that	-10.8644
▁called▁a	-10.8646
▁and▁strength	-10.8646
▁for▁its	-10.865
▁does▁so	-10.8653
▁to▁go▁to	-10.8654
▁betray	-10.8656
▁these▁words	-10.8658
bad	-10.8659
▁from▁outside	-10.8659
▁a▁c	-10.8662
▁public▁life	-10.8663
▁a▁stone	-10.8665
▁no▁need	-10.8666
▁nine	-10.8666
t▁I	-10.8667
▁what▁I▁think	-10.8667
▁what▁he▁is	-10.8671
▁removed	-10.8672
▁to▁do▁that	-10.8672
▁faces	-10.8673
▁And▁did	-10.8673
▁the▁reverse	-10.8676
▁the▁sight	-10.8677
▁rotation	-10.8677
▁the▁author▁of	-10.8678
▁prizes	-10.8678
▁the▁full	-10.8684
▁describes	-10.8685
▁competitors	-10.8686
▁accusations	-10.8687
▁forgotten	-10.8688
▁the▁division	-10.8693
▁a▁foreigner	-10.8695
▁individually	-10.8697
▁but▁one	-10.8701
▁author	-10.8704
▁we▁made	-10.8712
▁affected▁by	-10.8712
▁condemn	-10.8713
▁forgetting	-10.8715
▁agreed▁on	-10.8718
▁daughters	-10.8719
▁effectively	-10.8719
▁the▁stronger	-10.8725
▁you▁need	-10.8727
▁well▁said	-10.8729
▁ordinary▁people	-10.873
▁and▁making	-10.8731
▁to▁convince	-10.8731
▁have▁heard	-10.8733
▁for▁wisdom	-10.8733
▁seen▁to▁be	-10.8734
▁a▁private	-10.8738
▁from▁our	-10.8741
▁and▁those▁who	-10.8742
▁fool	-10.8746
▁in▁the▁present	-10.8747
▁more▁admirable	-10.8752
▁grow▁up	-10.8753
▁to▁maintain	-10.8754
▁inquir	-10.8754
▁respects	-10.8755
▁reason▁for	-10.8756
▁and▁turn	-10.8756
▁for▁everyone	-10.8758
▁his▁family	-10.8764
▁or▁an	-10.8767
▁has▁gone	-10.8767
▁find▁a	-10.877
▁on▁my	-10.8778
▁it▁comes▁to▁be	-10.8782
▁That▁would	-10.8783
▁against▁him	-10.8785
▁I▁knew	-10.8787
of▁the▁same▁sort	-10.8788
▁to▁contradict	-10.8788
▁nor▁do	-10.8791
▁tomb	-10.8794
▁universe	-10.8794
▁categories	-10.8803
▁for▁nothing	-10.8803
▁the▁other▁poets	-10.8804
▁But▁this▁is	-10.8806
▁his▁work	-10.8807
▁is▁likely	-10.8807
▁in▁the▁way▁that	-10.8808
▁Go	-10.8811
▁my▁questions	-10.8811
▁commend	-10.8813
▁right▁opinion	-10.8814
▁my▁boy	-10.8816
t▁know▁how	-10.8816
▁a▁farmer	-10.8821
s▁go▁back	-10.8821
▁refute▁me	-10.8821
▁it▁is▁right	-10.8822
▁giver	-10.8823
this	-10.8826
▁of▁our▁present	-10.8827
▁the▁souls	-10.8829
▁and▁the▁whole	-10.8835
ed▁us	-10.8836
▁our▁laws	-10.8837
▁he▁wishes	-10.8839
▁sources	-10.884
▁bu	-10.8842
▁I▁maintain▁that	-10.8845
▁our▁view	-10.8849
▁heir	-10.885
mē	-10.8852
▁you▁ask	-10.8854
▁to▁settle	-10.8855
▁in▁danger	-10.8857
▁thanks	-10.8858
▁unless▁you	-10.8861
▁partners	-10.8863
▁should▁do	-10.8863
▁there▁was▁a	-10.8864
▁the▁mixture	-10.8866
▁ways▁of▁life	-10.8869
▁should▁make	-10.887
▁the▁stars	-10.8872
▁pun	-10.8875
▁does▁this	-10.8875
▁resources	-10.8878
▁even▁if▁he	-10.8886
▁he▁deserves	-10.8889
▁in▁anger	-10.8893
▁the▁appearance	-10.8894
▁there▁are▁no	-10.8898
▁this▁be	-10.8899
▁in▁everything	-10.89
▁opening	-10.8911
▁agree▁with▁me	-10.8912
▁carpenter	-10.8912
uring	-10.8913
cent	-10.8916
▁lived▁in	-10.8918
▁a▁view	-10.8921
▁the▁larger	-10.8922
▁which▁he▁knows	-10.8925
▁to▁attain	-10.8933
▁look▁to	-10.8935
▁rival	-10.894
s▁as▁if	-10.8941
▁of▁Crete	-10.8943
iding	-10.8946
▁as▁such	-10.895
▁by▁saying▁that	-10.8955
▁a▁form	-10.8955
▁ratio	-10.8956
▁his▁nature	-10.8956
▁stops	-10.8956
▁other▁Greeks	-10.8957
▁some▁time	-10.8958
▁of▁the▁whole	-10.8959
▁agrees	-10.896
▁better▁than▁the	-10.8963
▁to▁sleep	-10.8966
▁shows▁that	-10.8967
see	-10.8968
▁was▁right	-10.8969
▁to▁compose	-10.897
▁What▁a	-10.8971
▁is▁to▁say	-10.8973
▁to▁grant	-10.8977
▁is▁best	-10.8977
▁in▁agreement	-10.8977
▁founder	-10.8977
▁the▁diagonal	-10.8981
▁accomplishment	-10.8981
▁see▁it	-10.8981
▁waste	-10.8982
▁of▁the▁argument	-10.8986
▁dwelling	-10.8988
▁crop	-10.8989
▁killing	-10.8991
▁do▁you▁suppose	-10.8993
▁the▁worse	-10.8993
▁I▁asked▁you	-10.8996
▁sake	-10.8997
▁device	-10.9003
▁there▁be	-10.9003
▁bri	-10.9006
▁is▁clear	-10.9014
▁for▁something	-10.9014
▁bestow	-10.9015
▁one▁way	-10.9017
▁the▁explanation	-10.902
▁The▁name	-10.9021
▁servant	-10.9023
▁use▁the	-10.9023
▁so▁they	-10.9024
▁it▁comes	-10.9025
▁copy	-10.9025
▁parent	-10.9026
▁nurse	-10.9029
▁at▁this▁point	-10.903
▁the▁m	-10.9034
▁dreams	-10.9036
▁give▁u	-10.9039
rat	-10.9039
It	-10.9043
▁is▁the▁cause	-10.9043
▁marry	-10.9047
ual	-10.9049
▁a▁suitable	-10.9053
▁our▁legislation	-10.9054
▁shares	-10.9055
mus	-10.9058
▁trace	-10.9058
▁pot	-10.9061
▁begrudge	-10.9066
▁and▁b	-10.9067
▁such▁men	-10.9069
▁allott	-10.907
▁perhaps▁you	-10.907
▁the▁ship	-10.9075
▁about▁all	-10.9076
▁measurement	-10.9081
ve▁had	-10.9083
▁really▁think	-10.9084
▁the▁way▁you	-10.9085
▁with▁these	-10.9085
even	-10.9086
▁you▁are▁right	-10.9091
▁destroys	-10.9091
▁cowardly	-10.9093
▁me▁a	-10.9094
▁it▁comes▁to	-10.9095
ale	-10.9096
▁at▁last	-10.9096
▁dismiss	-10.9098
▁belonged	-10.9099
▁listen▁to▁me	-10.9102
▁lo	-10.9103
▁and▁try	-10.9109
▁shares▁in	-10.9119
▁his▁city	-10.912
▁understands	-10.912
reason	-10.912
▁earnest	-10.9121
work	-10.9121
Why	-10.9121
How	-10.9122
because	-10.9122
▁winter	-10.9124
▁which▁is▁the	-10.9124
▁performances	-10.9127
▁and▁neither	-10.9133
▁and▁spend	-10.9135
▁will▁know	-10.9139
▁celebrate	-10.9139
▁gave▁it	-10.9139
▁ability▁to	-10.9145
▁Or▁have	-10.9145
▁balance	-10.9145
▁the▁education	-10.915
▁leader	-10.9151
▁this▁person	-10.9151
▁fame	-10.9151
▁be▁sure	-10.9152
▁beloved	-10.9153
▁if▁he▁did	-10.9158
▁the▁seasons	-10.916
▁relax	-10.9163
▁boil	-10.9166
▁evening	-10.917
▁cup	-10.9176
▁the▁f	-10.9177
▁suggests	-10.9184
▁must▁do	-10.9184
er▁and▁more	-10.9185
▁will▁it▁be	-10.9189
▁when▁he▁says	-10.919
▁endow	-10.919
▁after▁that	-10.9192
▁childhood	-10.9193
▁stir	-10.9193
▁enact	-10.9196
▁In▁this	-10.9197
▁jury	-10.9197
▁dark	-10.9198
qualified	-10.9199
▁to▁admit▁that	-10.9202
▁jealous	-10.9208
▁other▁craftsmen	-10.921
▁the▁soul▁itself	-10.921
▁management	-10.9212
▁came▁up	-10.9212
▁manifest	-10.9213
▁still▁have	-10.9214
▁strict	-10.9214
▁resent	-10.9215
▁conform	-10.9215
▁measuring	-10.9216
▁plague	-10.9216
▁pledge	-10.9216
▁inanimate	-10.9216
▁dignity	-10.9216
▁the▁culprit	-10.9216
▁accompany	-10.9216
▁treasure	-10.9216
▁voting	-10.9216
▁easiest	-10.9216
▁Third	-10.9216
▁heavenly▁bodies	-10.9216
▁competing	-10.9216
▁Marsyas	-10.9216
▁banquet	-10.9216
▁overthrow	-10.9216
▁preeminent	-10.9216
▁glory	-10.9216
▁debating	-10.9216
▁happier	-10.9216
▁Megara	-10.9216
▁Absolutely	-10.9216
▁boxing	-10.9216
▁sat▁down	-10.9216
▁incompetent	-10.9216
▁my▁good▁friend	-10.9216
▁luxury	-10.9216
▁Ajax	-10.9216
▁recognizing	-10.9216
▁cherish	-10.9217
▁applaud	-10.9217
▁brilliant	-10.9217
▁overwhelm	-10.9217
▁a▁painter	-10.9217
▁grief	-10.9217
▁reverence	-10.9217
▁Thracian	-10.9217
▁physician	-10.9217
▁in▁their▁turn	-10.9217
▁plotting	-10.9218
▁controlled	-10.9218
▁wealthier	-10.9219
▁prime	-10.9219
No	-10.9219
▁Also	-10.922
▁licentiousness	-10.922
▁Hippothales	-10.922
▁wild▁animals	-10.922
▁insatiable	-10.9221
▁interpretation	-10.9221
▁countless	-10.9222
▁her▁husband	-10.9222
▁darkness	-10.9223
▁elder	-10.9223
▁at▁Delphi	-10.9223
▁written▁rules	-10.9224
▁major	-10.9224
▁excluded	-10.9224
▁initiated	-10.9225
▁accomplishes	-10.9226
▁noise	-10.9228
▁inexperienced	-10.9228
▁unnatural	-10.923
▁most▁powerful	-10.923
comes▁into▁being	-10.9231
▁Among▁the	-10.9231
▁inclined▁to	-10.9233
▁touches	-10.9233
▁dialectical	-10.9234
▁Country▁Wardens	-10.9234
▁of▁character	-10.9235
▁others▁who	-10.9235
▁he▁asked	-10.9237
▁statesmen	-10.9237
▁a▁single▁form	-10.9238
▁by▁any	-10.924
▁theft	-10.9242
▁counter	-10.9242
▁board	-10.9243
ve▁mentioned	-10.9243
aking	-10.9243
d▁say▁that	-10.9243
▁be▁satisfied	-10.9244
▁unlikeness	-10.9244
ix	-10.9244
▁hide	-10.9246
ll▁ask	-10.9247
aw	-10.9249
▁distant	-10.9249
▁increased	-10.925
▁permanently	-10.9251
▁very▁long	-10.9252
▁if▁you▁remember	-10.9253
▁we▁make	-10.9254
ook	-10.9254
▁remind▁you	-10.9254
▁their▁souls	-10.9254
▁as▁I▁was▁saying	-10.9255
▁about▁something	-10.9255
▁the▁quality	-10.9257
▁but▁if▁it	-10.9257
▁history	-10.9259
▁a▁sound	-10.926
▁in▁the▁sky	-10.9263
▁other▁reason	-10.9264
s▁down	-10.9264
▁of▁perception	-10.9266
▁within▁himself	-10.9267
▁soul▁and▁body	-10.9268
▁and▁wise	-10.9269
▁the▁method	-10.9271
▁disputes	-10.9271
▁best▁possible	-10.9272
▁consistently	-10.9273
▁to▁be▁bad	-10.9274
▁steal	-10.9275
▁beat	-10.9275
▁to▁the▁good	-10.9276
▁sold	-10.9276
▁what▁he▁said	-10.9277
▁formation	-10.9277
▁All▁the▁same	-10.9279
▁to▁do▁injustice	-10.928
▁every▁time	-10.928
▁fine▁and▁good	-10.9281
▁than▁any▁other	-10.9281
▁no▁matter▁what	-10.9283
▁establishes	-10.9287
▁Lacedaemonians	-10.9287
▁guard▁against	-10.9287
▁come▁to▁have	-10.929
▁of▁law	-10.929
▁conventional	-10.9291
expert▁knowledge	-10.9291
▁right▁to▁say	-10.9292
▁assert▁that	-10.9295
▁rhetorical	-10.9296
ll▁get	-10.9299
▁my▁father	-10.9302
▁public▁affairs	-10.9302
▁we▁agree	-10.9303
▁he▁finds	-10.9305
▁raised	-10.931
▁to▁report	-10.931
t▁find	-10.9311
▁such▁cases	-10.9311
▁a▁house	-10.9314
▁against▁them	-10.9317
▁the▁daughter	-10.9318
▁money▁making	-10.9318
▁in▁the▁argument	-10.9319
▁Come▁on	-10.9319
▁if▁there▁were	-10.932
▁an▁opposite	-10.932
▁belongs▁to▁us	-10.9324
▁thing▁that	-10.9325
▁and▁we▁must	-10.9325
▁happen▁to▁be	-10.9326
▁notes	-10.9327
▁very▁same▁thing	-10.9329
▁the▁kinds	-10.9333
ins	-10.9337
▁Mo	-10.9342
▁go▁in▁for	-10.935
▁So▁then	-10.9351
t▁easy	-10.9352
▁quite▁different	-10.9355
▁divination	-10.9358
▁I▁used	-10.9361
▁that▁he▁should	-10.9361
▁the▁name▁giver	-10.9362
▁told▁us	-10.9363
▁a▁carpenter	-10.9366
▁controls	-10.9367
self	-10.9369
▁its▁being	-10.9371
▁of▁measurement	-10.9372
fine	-10.9377
▁hymns	-10.9378
▁to▁define	-10.9378
▁up▁with	-10.938
▁So▁there	-10.9382
s▁being	-10.9383
▁you▁hear	-10.9384
ing▁up	-10.9385
▁is▁willing	-10.9386
▁have▁got	-10.9386
▁what▁is▁bad	-10.9389
▁nourished	-10.9389
▁ver	-10.939
▁in▁a▁word	-10.939
▁fathers	-10.9392
▁exceptional	-10.9393
▁That▁way	-10.9395
This▁is	-10.9397
▁harbors	-10.9398
▁the▁thing▁that	-10.9401
ime	-10.9401
▁follow▁me	-10.9402
▁They▁say	-10.941
▁it▁down	-10.9412
▁fallen	-10.9417
▁observer	-10.9421
▁displayed	-10.9426
▁their▁bodies	-10.9435
▁so▁far▁as▁it	-10.9439
▁stranger	-10.9442
▁recite	-10.9446
▁they▁should▁be	-10.9447
▁with▁whom	-10.9453
▁offices	-10.9453
Is	-10.9456
▁more▁closely	-10.9458
▁most▁valuable	-10.9458
▁offend	-10.9459
▁Even▁if	-10.9468
▁shows	-10.9468
▁for▁someone▁who	-10.9468
▁ask▁them	-10.9472
▁our▁friend	-10.9474
sis	-10.9477
▁a▁penalty	-10.9478
▁aware▁that	-10.9479
▁is▁going▁to▁be	-10.9483
▁his▁thought	-10.9485
▁as▁we▁did	-10.9487
▁fun	-10.9487
▁I▁wanted	-10.9488
▁to▁establish	-10.9489
▁I▁have▁said	-10.949
▁for▁all▁the	-10.949
▁familiar▁with	-10.9491
▁sort▁of▁man	-10.9491
▁look▁at▁the	-10.9491
▁the▁Great	-10.9493
▁greatest▁good	-10.9494
▁should▁go	-10.9495
▁something▁good	-10.9497
▁beautifully	-10.9497
▁our▁hands	-10.9499
▁replace	-10.9502
▁that▁it▁does	-10.9504
▁Al	-10.9505
military▁service	-10.9505
▁he▁lives	-10.9506
▁a▁place	-10.9506
▁battles	-10.9508
▁give▁a	-10.951
▁to▁tell▁us	-10.9513
▁areas	-10.9518
▁of▁health	-10.9518
▁of▁Dionysus	-10.9518
▁it▁might▁be	-10.9522
▁roots	-10.9525
▁supposing▁that	-10.9526
▁should▁apply	-10.9527
▁philosophic	-10.9527
▁about▁me	-10.9529
▁the▁type	-10.9531
seem▁to▁me▁to▁be	-10.9533
▁a▁group	-10.9534
▁have▁gone	-10.9536
▁to▁keep▁the	-10.9537
▁ensure	-10.9539
▁toward▁the	-10.9539
▁But▁in▁fact	-10.954
▁body▁and	-10.9542
▁not▁only▁a	-10.9542
▁in▁which▁he	-10.9542
▁addressing	-10.9543
▁a▁science▁of	-10.9543
▁that▁we▁must	-10.9545
ied	-10.9548
▁objection	-10.955
▁fail▁to▁be	-10.9559
▁the▁cosmos	-10.956
▁the▁path	-10.956
▁his▁fellow	-10.9561
▁the▁orator	-10.9566
▁you▁will▁find	-10.9571
▁in▁theory	-10.9572
▁remedy	-10.9573
m▁going	-10.9573
▁this▁happens	-10.9573
▁of▁any▁other	-10.9575
▁the▁flesh	-10.9577
▁until▁it	-10.9578
▁Were	-10.9581
▁the▁ancients	-10.9581
▁we▁wanted	-10.9581
▁one▁and▁many	-10.9581
▁the▁superior	-10.9583
▁of▁Apollo	-10.9583
▁assembly	-10.9586
▁Do▁not	-10.9592
▁there▁was▁no	-10.9593
▁And▁there	-10.9594
▁in▁practice	-10.9595
▁she▁is	-10.9596
▁So▁he	-10.9597
▁on▁the▁point	-10.9599
ither	-10.9599
▁of▁a▁good	-10.9601
▁hearth	-10.9601
▁to▁love	-10.9602
▁ending	-10.9609
▁who▁does▁not	-10.9609
▁at▁the▁end	-10.9611
▁of▁weaving	-10.9612
▁a▁splendid	-10.9623
▁what▁was▁said	-10.9624
▁I▁think▁they	-10.9625
▁the▁birth	-10.9627
▁all▁of▁us	-10.9629
ries	-10.963
▁fruits	-10.9632
▁a▁desire	-10.9633
▁im	-10.9637
▁herds	-10.9645
▁the▁condition	-10.9645
▁entered	-10.9645
ed▁down	-10.9645
▁Sicily	-10.9647
▁for▁a▁city	-10.9648
▁pleasant▁things	-10.965
▁arm	-10.9651
s▁the▁way	-10.9653
istic	-10.9656
▁the▁details	-10.9659
▁of▁such▁a	-10.966
▁native	-10.9662
▁their▁cities	-10.9663
▁and▁that▁the	-10.9665
ed▁a	-10.9665
tes	-10.9666
▁certainly▁would	-10.9671
hat	-10.9672
▁try▁to▁explain	-10.9672
▁a▁p	-10.9672
▁well▁enough	-10.9672
omen	-10.9674
▁the▁judgment	-10.9677
▁attract	-10.9679
▁from▁its	-10.968
▁a▁thing▁you	-10.9682
▁made▁me	-10.9685
▁agreeable	-10.9687
▁disturb	-10.9687
▁the▁other▁is	-10.9689
▁sells	-10.969
▁very▁good	-10.9696
eb	-10.9697
▁the▁men▁who	-10.9698
So	-10.9699
▁and▁bad	-10.9701
▁It▁is▁a	-10.9702
▁are▁those	-10.9703
▁the▁meaning	-10.9705
▁and▁go	-10.9706
▁on▁me	-10.9709
▁persuade▁them	-10.971
▁neck	-10.971
▁and▁unjust	-10.9712
▁but▁if▁you	-10.9713
▁of▁imitation	-10.9716
▁better▁than▁a	-10.972
▁of▁words	-10.9722
▁sha	-10.9723
▁preserv	-10.9723
▁priests	-10.9723
▁there▁are▁three	-10.9725
▁there▁must▁be	-10.9731
▁rites	-10.9733
▁thinking▁about	-10.9734
▁do▁you▁not	-10.9736
▁of▁the▁country	-10.9736
▁of▁which▁we	-10.9737
▁occupy	-10.9737
▁values	-10.9743
▁what▁is▁it	-10.9746
▁patient	-10.9746
▁gratify	-10.9748
▁That▁seem	-10.975
▁errors	-10.9753
▁the▁motions	-10.9757
▁than▁these	-10.9761
▁say▁that▁they	-10.9762
▁the▁title	-10.9763
▁of▁those▁things	-10.9764
▁this▁in▁mind	-10.9765
▁of▁wine	-10.9767
▁and▁the▁one	-10.9768
▁a▁fair	-10.9769
▁with▁knowledge	-10.9769
▁su	-10.9772
▁even▁now	-10.9775
▁except▁in	-10.9777
▁that▁he▁himself	-10.9778
▁it▁would▁not▁be	-10.9779
▁what▁a	-10.9782
▁I▁maintain	-10.9783
▁fee	-10.9787
▁as▁far▁as▁the	-10.9789
▁guess	-10.9789
▁to▁his▁own	-10.9795
▁votes	-10.9795
▁dictator	-10.9797
▁This▁was	-10.9798
t▁be▁surprised	-10.9799
▁really▁do	-10.9799
▁to▁join	-10.98
▁and▁p	-10.9804
▁joke	-10.9804
▁and▁Megillus	-10.9805
▁in▁a▁way▁that	-10.9811
▁So▁when	-10.9819
ified	-10.9826
▁So▁it▁is	-10.9826
▁he▁did▁not	-10.9826
▁moon	-10.9827
▁I▁remember	-10.983
▁upon▁it	-10.9832
▁misfortunes	-10.9834
▁not▁admit	-10.9836
ve▁agreed	-10.9836
▁the▁idea	-10.9837
▁are▁true	-10.9837
▁the▁crowd	-10.9841
▁with▁justice	-10.9843
▁this▁line	-10.9844
▁conferr	-10.9845
▁it▁may	-10.9846
▁a▁chorus	-10.9847
▁approved	-10.9848
▁or▁mother	-10.9851
friend	-10.9852
▁But▁not	-10.9853
s▁consider	-10.9855
dding	-10.9859
ea	-10.9864
▁broke	-10.9864
▁would▁agree	-10.9864
▁to▁prosecute	-10.9867
▁fulfill	-10.9867
how	-10.9868
▁about▁the▁soul	-10.9871
▁dissolve	-10.9876
▁without▁the	-10.9876
Socratic	-10.9888
▁it▁is▁the	-10.9889
ēr	-10.9889
sophist	-10.9889
on▁to▁each▁other	-10.989
▁treats	-10.9891
That	-10.9892
s▁admirable	-10.9892
▁be▁allowed	-10.9892
▁items	-10.9894
I▁am	-10.9896
▁Why▁do	-10.9896
▁a▁rational	-10.9899
nder	-10.99
▁I▁say▁this	-10.99
▁I▁wish	-10.9902
ept	-10.9908
▁fancy	-10.9911
▁their▁time	-10.9912
▁a▁clear	-10.9913
▁in▁which▁we	-10.9913
when	-10.9917
▁it▁off	-10.992
▁pronounce	-10.9923
▁to▁endure	-10.9923
▁the▁mortal	-10.9924
▁how▁will	-10.9925
ob	-10.9926
re▁quite▁right	-10.9926
▁flatter	-10.9927
▁thing▁there▁is	-10.993
▁lad	-10.9931
▁injure	-10.9935
▁knows▁what	-10.9937
▁the▁dialogue	-10.9939
▁and▁bring	-10.994
▁beyond▁the	-10.9941
▁at▁night	-10.9943
▁of▁Greece	-10.9944
▁tell▁me▁what	-10.9949
▁location	-10.9951
▁think▁they	-10.9954
▁interpret	-10.9957
▁wished▁to	-10.9958
▁culture	-10.9959
▁where▁you	-10.9963
▁quote	-10.9965
▁lament	-10.9966
tal	-10.9967
▁incline	-10.9968
▁slight	-10.9968
▁amount▁to	-10.9969
▁combat	-10.9969
▁feed	-10.9973
▁to▁signify	-10.9975
▁equi	-10.9977
▁falsity	-10.9978
▁counterpart	-10.998
▁branch	-10.998
▁compositions	-10.9981
▁to▁Dion	-10.9982
scribe	-10.9983
▁deprived▁of▁the	-10.9984
▁persist	-10.9985
▁appeal	-10.9985
▁surplus	-10.9985
▁even▁in	-10.9985
▁at▁the▁outset	-10.9985
▁crucial	-10.9985
▁hypotheses	-10.9985
▁purified	-10.9985
▁arrogance	-10.9985
▁amusement	-10.9985
▁for▁people	-10.9985
▁at▁any▁time	-10.9985
▁equilateral	-10.9985
▁identical	-10.9986
▁message	-10.9986
▁Europe	-10.9986
▁disdain	-10.9986
▁extensive	-10.9986
▁Boeotia	-10.9986
▁nobility	-10.9986
▁burial	-10.9986
▁eventually	-10.9986
▁nonetheless	-10.9986
▁percipient	-10.9986
▁spinning	-10.9986
▁insofar▁as▁he	-10.9986
▁obstacle	-10.9986
▁circular	-10.9986
▁malice	-10.9986
▁phlegm	-10.9986
▁maxim	-10.9986
▁extremities	-10.9986
▁proposition	-10.9986
▁worry	-10.9986
▁pastry▁baking	-10.9986
▁subtle	-10.9986
▁shift	-10.9986
▁Cyrus	-10.9986
▁lips	-10.9986
▁hinder	-10.9986
▁smell	-10.9986
▁hostile	-10.9986
▁rob	-10.9986
▁lamentations	-10.9986
▁loose	-10.9986
▁burst	-10.9986
▁expenditure	-10.9986
▁horn	-10.9986
▁rude	-10.9986
▁variation	-10.9986
▁As▁a▁result	-10.9987
▁mob	-10.9987
▁innate	-10.9987
▁plot	-10.9988
▁execution	-10.9988
▁acted▁upon	-10.9988
▁Answer	-10.9988
▁if▁you▁wish	-10.9988
▁Pro	-10.9988
▁At▁least	-10.9988
▁systematic	-10.999
▁of▁them▁are	-10.999
▁literally	-10.999
▁childish	-10.999
▁branches	-10.9991
▁gate	-10.9991
▁protector	-10.9991
▁a▁just▁man	-10.9991
▁in▁every▁case	-10.9991
▁the▁door	-10.9991
▁always▁be	-10.9992
▁cry	-10.9992
▁fourth▁century	-10.9993
▁anyhow	-10.9994
▁disagreement	-10.9995
▁a▁long▁way	-10.9995
▁contradiction	-10.9996
▁fearful	-10.9996
▁remind▁me	-10.9999
▁assignment	-11
▁heard▁that	-11
▁approaches	-11.0001
▁of▁hearing	-11.0002
▁he▁knew	-11.0002
▁parad	-11.0003
▁Cephalus	-11.0004
▁rely▁on	-11.0007
▁upright	-11.001
▁went▁on	-11.001
▁become▁good	-11.0011
▁winning	-11.0012
▁claiming▁that	-11.0014
▁think▁you	-11.0015
▁superiority	-11.0016
▁not▁knowing	-11.0016
▁spectators	-11.0017
▁Theseus	-11.0019
▁selection	-11.0022
▁other▁respects	-11.0026
▁the▁primary	-11.0026
▁our▁fathers	-11.0029
t▁you▁see	-11.0029
▁this▁particular	-11.003
▁with▁being	-11.003
▁pig	-11.0031
▁the▁single	-11.0033
▁successfully	-11.0033
▁Being	-11.0034
s▁back	-11.0035
▁executed	-11.0035
▁the▁seer	-11.0035
▁carries	-11.0042
▁awarded	-11.0042
▁in▁all▁cases	-11.0045
▁that▁you▁were	-11.0047
▁to▁do▁this	-11.005
▁by▁contrast	-11.0053
▁after▁death	-11.0054
▁upon▁me	-11.0055
▁telling▁you	-11.0056
▁the▁one▁which	-11.0057
es▁on	-11.0057
▁who▁profess	-11.0058
▁larger▁than	-11.0059
▁root	-11.0061
▁to▁persuade▁him	-11.0061
▁in▁multitude	-11.0065
▁for▁the▁moment	-11.0065
▁in▁earnest	-11.0066
▁hero	-11.0067
ing▁things	-11.0067
▁nothing▁more	-11.0071
▁signs	-11.0073
ove	-11.0073
▁threats	-11.0074
ife	-11.0075
▁recorded	-11.0075
▁was▁born	-11.0078
▁right▁away	-11.0082
▁his▁victim	-11.0083
▁from▁the▁sea	-11.0084
▁If▁it▁is	-11.0085
▁to▁sing	-11.0087
▁playful	-11.0089
▁deathless	-11.0092
▁is▁immortal	-11.0095
▁of▁women	-11.0097
▁makes▁me	-11.0101
▁So▁much	-11.0101
▁So▁we▁must	-11.0102
▁for▁murder	-11.0105
▁you▁gave	-11.0108
▁saw▁him	-11.0108
s▁art	-11.0109
▁admits	-11.0109
▁kills▁a	-11.011
t▁you▁call	-11.011
▁You▁should	-11.0113
▁selling	-11.0114
drinking▁parties	-11.0116
▁get▁a	-11.0121
▁it▁could▁be	-11.0122
▁in▁politics	-11.0123
▁once▁more	-11.0126
▁Is▁it▁not	-11.0129
▁before▁we	-11.0131
s▁natural	-11.0131
▁If▁one	-11.0131
▁the▁best▁way	-11.0131
▁looks▁as▁if▁we	-11.0137
▁worth▁living	-11.0137
▁as▁he▁is	-11.0138
▁good▁sense	-11.0139
▁even▁if▁it	-11.0139
▁their▁being	-11.0139
aging	-11.0142
▁a▁dog	-11.0144
▁these▁gods	-11.0145
▁of▁Syracuse	-11.0148
▁dispute▁about	-11.015
▁But▁they	-11.015
ped	-11.015
▁should▁come	-11.0153
date	-11.0155
▁that▁knowledge	-11.0159
▁So▁it▁seems	-11.0159
▁though▁it▁is	-11.0159
ith	-11.0159
▁to▁listen	-11.016
▁all▁around	-11.0162
▁and▁say▁that	-11.0164
▁among▁men	-11.0165
▁except▁the	-11.0165
▁to▁run	-11.0168
▁restrained	-11.0169
▁wounded	-11.0169
▁to▁make▁it	-11.0172
▁on▁him	-11.0173
▁not▁mere	-11.0175
▁take▁no	-11.0175
▁can▁say	-11.0176
▁a▁foreign	-11.0177
▁with▁the▁body	-11.0177
▁du	-11.0181
▁blows	-11.0181
▁a▁greater▁share	-11.0183
▁there▁are▁other	-11.0183
hea	-11.0183
▁stays	-11.0184
▁by▁teaching	-11.0184
▁a▁fine▁thing	-11.0185
▁Or▁would	-11.0191
▁partake▁of▁the	-11.0191
▁nurses	-11.0191
▁from▁us	-11.0193
▁Pindar	-11.0196
▁a▁greater	-11.0197
▁learn▁it	-11.0206
▁attempting	-11.0208
▁a▁man▁should	-11.0211
ll▁take	-11.0211
▁crops	-11.0216
▁a▁brother	-11.0216
▁in▁music	-11.0216
enus	-11.0217
▁your▁city	-11.0217
▁must▁learn	-11.0217
▁an▁education	-11.0217
ve▁seen	-11.0218
▁unjust▁people	-11.0223
▁the▁whole▁state	-11.0223
▁just▁the▁same	-11.023
▁that▁man	-11.0233
▁that▁I▁have	-11.0234
▁For▁it▁is	-11.0238
▁if▁you▁had	-11.0239
▁weapon	-11.0239
▁you▁remember	-11.0241
s▁and▁pleasures	-11.0243
▁why▁should	-11.0244
▁in▁themselves	-11.0245
▁this▁matter	-11.0245
▁officers	-11.0246
▁whenever▁it	-11.0246
▁endless	-11.0247
ed▁off	-11.0253
▁the▁account	-11.0254
▁can▁it▁be	-11.0255
▁sorts▁of▁things	-11.0255
cept	-11.0256
s▁called	-11.0258
▁entering	-11.0259
ise	-11.026
▁a▁son	-11.0269
▁are▁the▁ones	-11.0271
▁demanded	-11.0276
▁private▁citizen	-11.0279
▁daughter	-11.0282
▁the▁view	-11.0285
▁that▁time	-11.0286
▁them▁on	-11.029
▁I▁asked▁him	-11.0293
▁My▁friend	-11.0295
▁maker	-11.0295
▁in▁effect	-11.0296
▁found▁out	-11.0297
▁first▁principle	-11.0298
▁the▁whole▁of▁it	-11.0303
▁directing	-11.0305
▁our▁inquiry	-11.0306
▁seeming	-11.0307
▁of▁vice	-11.0315
▁And▁let	-11.0318
▁territory	-11.0321
lor	-11.0324
▁will▁ever▁be	-11.0324
▁infinite	-11.0325
▁the▁one▁itself	-11.0325
▁will▁find	-11.0326
▁fault▁with	-11.0329
▁second▁place	-11.033
▁the▁offspring	-11.033
▁the▁election	-11.0334
▁for▁not	-11.0338
▁gr	-11.034
▁called▁it	-11.0341
▁passions	-11.0343
▁on▁what	-11.0343
▁affections	-11.0343
▁the▁older	-11.0347
▁at▁this	-11.0348
▁the▁legal▁code	-11.0351
▁for▁the▁other	-11.0355
▁more▁so	-11.0356
▁confiscat	-11.0356
▁the▁charge	-11.036
▁So▁they	-11.036
▁it▁is▁better	-11.0362
▁directs	-11.0363
▁which▁he▁has	-11.0366
▁is▁another	-11.0366
▁a▁leader	-11.0367
▁nose	-11.0374
▁other▁names	-11.0374
▁for▁whom	-11.0375
▁toil	-11.0377
▁He▁should	-11.0379
▁when▁she	-11.0381
▁is▁the▁best	-11.0381
▁if▁they▁do	-11.0381
▁by▁another	-11.0381
▁of▁the▁sun	-11.0383
▁impressed	-11.0383
▁go▁wrong	-11.0384
▁about▁our	-11.0385
▁of▁the▁matter	-11.0385
▁in▁saying▁that	-11.0388
▁upon▁us	-11.0389
▁The▁law	-11.0389
▁There▁is▁a	-11.0393
▁could▁we	-11.0394
▁rid	-11.0394
▁I▁said▁that	-11.0395
▁make▁clear	-11.0397
▁Should▁we	-11.0402
▁why▁it	-11.0403
▁kinds▁of▁things	-11.0404
▁you▁speak	-11.0404
▁is▁a▁good▁thing	-11.041
▁to▁be▁feared	-11.0413
▁bound▁to	-11.0413
▁criminal	-11.0414
▁He▁says	-11.0415
▁persuade▁us	-11.0418
▁of▁fear	-11.0421
▁will▁never▁be	-11.0426
▁effective	-11.0426
rry	-11.0427
▁untrue	-11.0428
▁hear▁it	-11.0433
▁third▁kind	-11.0433
▁the▁visible	-11.0434
▁this▁is▁so	-11.0435
▁admit▁the	-11.0436
▁falsehoods	-11.0438
▁possibly▁be	-11.044
▁our▁agreement	-11.0441
▁all▁the▁time	-11.0441
▁to▁train	-11.0443
▁substance	-11.0443
▁the▁same▁man	-11.0443
▁to▁profit▁from	-11.0446
each	-11.0454
▁a▁good▁thing	-11.0458
▁when▁he▁does	-11.0459
▁in▁time	-11.046
▁to▁admit	-11.0466
▁by▁reason	-11.0468
ians	-11.0474
▁for▁pleasure	-11.0475
eep	-11.0475
▁prosecut	-11.0476
▁the▁impression	-11.0478
▁the▁image	-11.048
▁help▁us	-11.048
▁visitors	-11.048
▁models	-11.0481
▁in▁the▁eyes	-11.0482
▁my▁speech	-11.0482
ank	-11.0485
▁not▁beautiful	-11.0488
▁is▁capable	-11.0489
▁hu	-11.0489
▁nor▁any	-11.049
▁the▁way▁it▁is	-11.0491
▁answer▁him	-11.0493
▁like▁you	-11.0493
▁arrives	-11.0493
▁the▁fifth	-11.0494
▁I▁suppose▁you	-11.0494
▁athletic	-11.0495
▁are▁in▁motion	-11.0495
▁point▁is	-11.0496
▁want▁us	-11.0498
▁an▁imitator	-11.0499
ing▁down	-11.0503
▁politician	-11.0503
▁writer	-11.0503
tory	-11.051
▁It▁has	-11.0511
▁that▁he▁would	-11.0512
▁in▁line	-11.0512
▁winds	-11.0513
▁books	-11.0516
▁the▁production	-11.0517
▁wronged	-11.0517
▁say▁so	-11.0521
▁beautiful▁boy	-11.0521
▁talking▁to	-11.0522
▁for▁men	-11.0528
▁the▁chance	-11.0529
▁knowable	-11.053
▁is▁unjust	-11.0531
▁a▁disgrace	-11.0532
▁relate	-11.0533
s▁due	-11.0535
▁candidate	-11.0537
▁What▁is▁the	-11.0539
▁proofs	-11.0539
row	-11.054
▁Now▁when	-11.0541
▁the▁right▁thing	-11.0546
ity▁of	-11.0546
▁guarding	-11.0552
▁preliminar	-11.0553
▁in▁full	-11.0553
▁And▁if▁the	-11.0561
▁I▁mean▁the	-11.0563
▁De	-11.0563
▁arriving	-11.0564
▁revealed	-11.0565
t▁remember	-11.0566
▁student	-11.0566
▁procession	-11.0567
▁of▁persuasion	-11.0569
▁the▁process	-11.0572
se▁same▁things	-11.0573
▁his▁actions	-11.0576
▁rhapsodes	-11.0577
▁nor▁the	-11.0582
t▁think▁it	-11.0582
▁patterns	-11.0588
▁and▁did	-11.0589
ending	-11.0589
▁competitor	-11.0592
late	-11.0593
▁oath	-11.0594
▁the▁just▁is	-11.0594
▁civi	-11.0596
wards	-11.06
▁a▁worse	-11.0603
▁of▁a▁state	-11.0604
▁the▁good▁man	-11.0604
▁gymnastic	-11.0605
▁their▁subjects	-11.0606
thos	-11.0609
▁harbor	-11.061
▁pictures	-11.0612
▁not▁the▁same	-11.0612
▁and▁ugly	-11.0616
▁for▁my	-11.0618
▁it▁is▁difficult	-11.062
▁explain▁how	-11.0623
▁soldier	-11.0626
▁more▁likely	-11.0626
▁You▁say	-11.0629
▁hollow	-11.0633
▁I▁should▁be	-11.0633
▁you▁think▁it	-11.0638
▁the▁acquisition	-11.0645
▁of▁themselves	-11.0645
▁associate	-11.0646
▁of▁no▁value	-11.0649
▁the▁seed	-11.065
▁extremes	-11.065
▁in▁Greece	-11.0662
▁talk▁with	-11.067
▁to▁demonstrate	-11.0672
▁And▁I▁said	-11.0675
▁three▁years	-11.0676
uck	-11.0681
▁but▁in▁fact	-11.0682
▁I▁hear	-11.0683
▁at▁it▁this▁way	-11.0685
▁Apollodorus	-11.0688
▁the▁ancient	-11.069
▁more▁pleasant	-11.0693
▁truth▁in	-11.0697
▁from▁my	-11.0699
▁treatise	-11.0701
▁were▁speaking	-11.0703
▁the▁value	-11.0705
▁longing	-11.0708
non	-11.0713
▁make▁an	-11.0713
▁comparison	-11.0715
▁one▁does	-11.0716
▁Posidon	-11.0717
▁unknown	-11.072
part	-11.072
▁a▁dream	-11.072
since	-11.0725
But	-11.0725
▁see▁how	-11.073
▁which▁of▁the	-11.0734
▁woven	-11.0734
▁shake	-11.0735
▁revolve	-11.0736
▁of▁constitution	-11.0736
▁in▁kind	-11.0737
▁on▁behalf▁of▁th	-11.0741
▁vary	-11.0742
▁strip	-11.0747
▁your▁life	-11.0747
m▁sure▁you	-11.075
ump	-11.0753
▁the▁standard	-11.0755
▁poison	-11.0757
▁as▁quickly	-11.0762
▁the▁island	-11.0765
▁surviv	-11.0765
▁he▁means	-11.0765
▁Give	-11.0766
dia	-11.0768
▁the▁audience	-11.077
▁as▁they▁were	-11.0782
▁advisers	-11.0782
Are	-11.0784
▁and▁wealth	-11.0785
▁successor	-11.0791
correct▁judgment	-11.0793
▁and▁all▁that	-11.0793
▁opinion▁about	-11.0798
▁confine	-11.08
▁would▁appear	-11.0802
▁is▁necessary	-11.0809
▁loud	-11.0813
▁would▁rather	-11.0813
▁the▁purpose	-11.0813
▁shoot	-11.0815
▁magic	-11.0816
▁pressure	-11.0816
▁Argos	-11.0817
▁discord	-11.0817
▁mild	-11.0818
▁robber	-11.0818
▁confirm	-11.0818
▁infant	-11.0818
▁cycle	-11.0819
▁mathematical	-11.0819
▁trustworthy	-11.0819
▁cheerful	-11.0819
▁purchase	-11.0819
erxes	-11.0819
▁surrender	-11.0819
▁troops	-11.0819
▁auxiliaries	-11.0819
▁reproduce	-11.0819
▁refuge	-11.0819
▁adult	-11.0819
▁acquaintance	-11.0819
▁sanction	-11.0819
▁ambitious	-11.0819
▁the▁winner	-11.0819
▁educator	-11.0819
▁scarce	-11.0819
▁choosing	-11.0819
▁testify	-11.0819
▁voyage	-11.0819
▁advising	-11.0819
▁shocking	-11.0819
▁gives▁rise▁to	-11.0819
▁procreation	-11.0819
▁concord	-11.0819
▁precision	-11.0819
▁unavoidable	-11.0819
▁disappear	-11.0819
▁enthusiastic	-11.0819
▁Earth	-11.0819
▁consort	-11.0819
▁purify	-11.0819
▁the▁acropolis	-11.0819
▁loyal	-11.0819
▁enclosure	-11.0819
▁gratitude	-11.0819
▁Prometheus	-11.0819
▁delay	-11.0819
▁Lycurgus	-11.0819
▁By▁all▁means	-11.0819
▁flourish	-11.0819
▁civilized	-11.0819
▁protest	-11.0819
▁a▁while▁ago	-11.0819
▁erect	-11.0819
▁a▁mistake	-11.0819
▁chest	-11.0819
minent	-11.0819
▁tomorrow	-11.0819
▁winged	-11.0819
▁time▁to▁time	-11.082
▁virtue▁and▁vice	-11.082
▁nice	-11.082
▁preparation	-11.082
▁gods▁and▁humans	-11.082
▁conformity	-11.082
▁May	-11.0821
▁dense	-11.0821
▁supplement	-11.0821
▁to▁look▁after	-11.0821
▁monarchy	-11.0821
▁impure	-11.0821
▁anywhere▁else	-11.0821
▁odd▁and▁even	-11.0821
▁up▁and▁down	-11.0821
▁jar	-11.0821
▁rain	-11.0822
▁that▁condition	-11.0822
▁development	-11.0822
▁insight	-11.0822
▁faint	-11.0822
▁indulgence	-11.0823
▁overpower	-11.0823
▁Tyrtaeus	-11.0824
▁the▁Different	-11.0825
▁series	-11.0827
▁longer▁than	-11.0827
▁thing▁to▁say	-11.0827
▁pan	-11.0827
▁all▁over▁again	-11.0827
▁a▁second▁time	-11.0828
▁bitterness	-11.0828
▁instructor	-11.0829
▁illnesses	-11.0829
▁shrink	-11.0831
▁whiteness	-11.0831
▁on▁any	-11.0833
▁rational▁part	-11.0833
▁a▁bad▁thing	-11.0834
▁warning	-11.0834
▁slowness	-11.0834
▁in▁this▁respect	-11.0834
▁ultimately	-11.0835
▁comfort	-11.0835
▁the▁veins	-11.0835
▁Tell▁us	-11.0837
▁still▁alive	-11.0838
▁discovery	-11.0838
▁identified	-11.0839
▁we▁should▁do	-11.0839
▁clothing	-11.0839
▁took▁place	-11.084
▁because▁of▁its	-11.084
▁good▁advice	-11.0841
▁assured	-11.0843
▁astonished	-11.0843
▁to▁see▁that	-11.0844
▁for▁all▁time	-11.0845
▁deemed	-11.0845
▁acute	-11.0845
▁her▁own	-11.0846
▁he▁uses	-11.0846
▁is▁the▁measure	-11.0847
▁more▁persuasive	-11.0847
▁anything▁at▁all	-11.0848
▁sensible▁man	-11.0848
▁other▁parts	-11.0848
▁mindless	-11.0849
unished▁by▁death	-11.0849
▁with▁great	-11.0851
▁violently	-11.0851
▁as▁long▁as▁they	-11.0852
▁you▁think▁I	-11.0854
▁Accordingly	-11.0855
born	-11.0857
▁subjection	-11.0857
ighting▁in▁armor	-11.0858
▁thing▁itself	-11.0859
▁payment	-11.086
▁in▁discussion	-11.0861
▁from▁the▁one	-11.0861
▁the▁speeches	-11.0864
▁in▁other▁ways	-11.0865
▁for▁the▁good	-11.0866
▁anything▁but	-11.0866
▁Other	-11.0867
▁interrupted	-11.0867
▁in▁Sicily	-11.087
▁The▁soul	-11.0871
t▁you▁noticed	-11.0873
▁incorrectly	-11.0873
▁flat	-11.0876
▁our▁attention	-11.0878
▁best▁of▁all	-11.0879
▁breeding	-11.0879
▁the▁poison	-11.0881
▁the▁weaker	-11.0882
▁Since▁the	-11.0883
▁put▁down	-11.0883
▁modesty	-11.0883
▁drugs	-11.0884
▁committ	-11.0885
▁rejected	-11.0888
▁his▁own▁work	-11.089
▁as▁we▁do	-11.089
▁and▁then▁again	-11.0892
▁ease	-11.0893
aretē	-11.0893
▁the▁issue	-11.0894
▁which▁are▁not	-11.0894
▁implies	-11.0894
▁other▁name	-11.0896
ges	-11.0898
▁that▁come▁to▁be	-11.0904
▁such▁and▁such	-11.0904
▁the▁same▁hold	-11.0904
▁to▁being	-11.0906
▁imagine▁that	-11.0907
▁indulge	-11.0908
▁the▁half	-11.0913
▁presentation	-11.0914
▁if▁one▁is▁not	-11.0915
▁objections	-11.0917
▁supposed▁to▁be	-11.0918
▁admirable▁thing	-11.0921
▁create▁a	-11.0924
▁If▁any	-11.0925
▁a▁fee	-11.0926
▁of▁the▁first	-11.0926
▁It▁would▁be▁a	-11.0926
m▁concerned	-11.0927
▁no▁harm	-11.0927
▁Sc	-11.0929
▁be▁ashamed	-11.093
▁puts▁it	-11.093
▁reminder	-11.0931
▁bring▁him	-11.0935
H	-11.0936
rus	-11.0941
▁aroused	-11.0943
▁not▁let	-11.0944
▁after▁a	-11.0945
t▁think▁so	-11.0948
▁was▁an	-11.0949
▁to▁look▁for	-11.0949
▁there▁is▁any	-11.0949
▁a▁bad▁one	-11.0949
▁of▁each▁thing	-11.0954
▁more▁profitable	-11.0957
▁while▁those▁who	-11.0958
▁as▁I▁am	-11.0958
▁to▁blame	-11.0959
▁more▁difficult	-11.0961
▁with▁difficulty	-11.0962
dy	-11.0963
reliable	-11.0963
▁was▁said	-11.0963
▁True	-11.0963
▁streams	-11.0964
▁in▁the▁heavens	-11.0967
▁Am	-11.097
▁they▁love	-11.0972
ically	-11.0974
▁can▁ever	-11.0976
▁quarters	-11.0982
▁most▁of▁them	-11.0983
ed▁away	-11.0985
▁to▁be▁like	-11.0988
ber	-11.099
▁may▁have▁been	-11.0993
▁from▁here	-11.0994
▁as▁he▁does	-11.0994
▁take▁part▁in	-11.0998
▁cuts	-11.0998
one▁and▁the▁same	-11.0999
▁you▁describe	-11.0999
▁any▁one▁of▁them	-11.1006
▁in▁dealing▁with	-11.101
▁fly	-11.1014
▁the▁family	-11.1015
▁a▁proper	-11.1017
▁delicate	-11.1018
▁will▁probably	-11.1019
▁of▁earth	-11.1021
ster	-11.1021
▁lightly	-11.1027
▁nor▁is▁it	-11.1029
▁perhaps▁we	-11.1029
▁of▁hunting	-11.1038
▁true▁and▁false	-11.1039
▁is▁pious	-11.1044
▁in▁reality	-11.1047
hap	-11.1048
▁imitates	-11.1054
▁this▁is▁a	-11.1057
▁imitated	-11.1058
▁that▁reason	-11.1058
▁the▁prize	-11.1058
▁my▁answer	-11.1059
ved	-11.1064
▁to▁bear	-11.1067
▁unusual	-11.107
▁for▁such	-11.1071
▁come▁up	-11.1075
▁to▁be▁ruled	-11.1079
▁as▁this	-11.108
▁spoke▁of	-11.1082
▁be▁persuaded	-11.1083
▁I▁feel	-11.1083
que	-11.1084
▁through▁it	-11.1085
▁modes	-11.1088
▁proceed▁to	-11.1092
▁in▁the▁universe	-11.1092
▁table	-11.1093
▁knew▁that	-11.1096
▁goes▁to	-11.1096
▁accurately	-11.1099
▁Del	-11.1101
▁converse▁with	-11.1102
▁give▁way	-11.1103
▁the▁two▁of▁them	-11.1104
▁man▁who▁is	-11.1104
They	-11.1107
▁the▁end▁of▁the	-11.1107
▁by▁himself	-11.1108
▁than▁others	-11.1112
▁attacked	-11.1112
▁is▁the▁one▁who	-11.1112
▁the▁region	-11.1126
▁that▁answer	-11.1127
▁the▁Council	-11.1128
▁enforce	-11.1128
▁to▁give▁a	-11.113
▁accordingly	-11.113
uc	-11.113
▁the▁benefit	-11.1131
▁ambitions	-11.1135
▁union	-11.1137
▁to▁do▁with▁the	-11.1142
▁the▁painter	-11.1143
▁do▁say▁that	-11.1148
▁against▁it	-11.1149
d▁be▁right	-11.1152
▁of▁generation	-11.1153
▁like▁themselves	-11.1158
▁to▁escape	-11.1159
bsolutely▁right	-11.1159
▁he▁never	-11.1159
▁kind▁of▁person	-11.116
▁resting	-11.1161
▁that▁go	-11.1163
▁a▁moment	-11.1165
▁you▁just	-11.1165
▁ruined	-11.1165
▁not▁difficult	-11.1165
▁I▁say▁is▁true	-11.1166
ve▁done	-11.1167
▁he▁get	-11.1168
▁legislat	-11.1169
▁his▁case	-11.1171
inner	-11.1172
▁to▁philosophy	-11.1173
domestic	-11.1175
mber	-11.1175
▁maintains	-11.1176
▁his▁enemies	-11.1177
▁the▁face	-11.118
▁what▁is▁fine	-11.1181
▁makes▁you	-11.1182
▁one▁might	-11.1184
▁make▁every	-11.1185
▁We▁do	-11.1188
▁planning	-11.1189
▁would▁say▁that	-11.119
▁of▁letters	-11.119
▁to▁repeat	-11.1193
▁mentioning	-11.1196
▁charming	-11.1198
▁what▁we▁agreed	-11.1202
▁his▁boy	-11.1202
▁from▁the▁city	-11.1202
▁if▁possible	-11.1204
▁this▁business	-11.1209
▁to▁become▁good	-11.1216
▁sings	-11.1218
▁what▁virtue▁is	-11.1218
▁kind▁of▁wisdom	-11.1218
D	-11.1222
▁have▁described	-11.1225
▁he▁has▁no	-11.1228
▁put▁them	-11.1232
▁have▁the▁power	-11.1233
▁this▁means	-11.1234
▁examine▁them	-11.1234
▁highest	-11.1237
▁of▁speeches	-11.1238
phon	-11.1239
▁a▁full	-11.1242
▁by▁saying	-11.1242
▁aliens	-11.1246
▁I▁realized	-11.1247
▁of▁other▁things	-11.1254
▁awe	-11.1255
▁of▁the▁Muses	-11.1259
▁what▁kind	-11.126
▁receiv	-11.1263
▁affair	-11.1266
▁precisely▁the	-11.1268
▁could▁it▁be	-11.1269
▁to▁form	-11.127
▁you▁are▁willing	-11.1272
▁discretion	-11.1273
▁fortunate	-11.1273
▁miss	-11.1274
t▁the▁beginning	-11.1278
t▁these	-11.1283
▁statement▁that	-11.1285
win	-11.1286
▁the▁oracle	-11.1287
▁occupie	-11.1287
▁they▁have▁no	-11.1288
▁height	-11.1292
▁for▁anyone▁who	-11.1292
re▁would▁be▁no	-11.1292
have	-11.1294
▁dedicated▁to	-11.1294
▁legs	-11.1296
▁population	-11.1297
▁the▁service	-11.1298
▁become▁better	-11.1301
▁to▁pursue	-11.1304
▁make▁any	-11.1313
▁spare	-11.1313
▁a▁democracy	-11.1317
▁saying▁this	-11.1318
▁they▁would▁be	-11.1318
▁mode	-11.1323
▁the▁expert	-11.1326
▁I▁thought▁I	-11.133
▁they▁give	-11.133
▁among▁you	-11.1333
▁dangers	-11.1334
▁builder	-11.1335
▁One▁of	-11.1339
▁also▁say	-11.1341
▁insert	-11.1343
▁Now▁here	-11.1349
▁Cretans	-11.1351
▁they▁deserve	-11.1352
▁from▁the▁truth	-11.1355
eem	-11.1355
▁brought▁in	-11.1357
▁has▁the▁power	-11.1361
▁absorb	-11.1363
▁discharge	-11.1366
▁I▁suppose▁we	-11.1367
▁as▁I▁do	-11.1368
▁certainly▁have	-11.1369
▁of▁legislation	-11.137
▁or▁any▁of▁the	-11.137
d▁him	-11.1371
▁say▁it▁is	-11.1379
▁as▁it▁was	-11.1381
s▁son	-11.1385
▁your▁account	-11.1386
▁of▁your▁own	-11.1387
▁bees	-11.1387
on▁to▁themselves	-11.1387
r▁than	-11.1388
▁they▁go	-11.1389
▁the▁limit	-11.139
▁his▁age	-11.1391
▁of▁these▁men	-11.1393
▁by▁means▁of▁a	-11.1394
▁grateful	-11.1399
▁can▁have	-11.1403
▁disturbances	-11.1406
▁are▁wise	-11.1406
▁same▁argument	-11.1409
▁the▁song	-11.1412
▁persons▁who	-11.1414
▁husband	-11.1416
▁give▁birth	-11.1417
▁requirement	-11.1418
▁gains	-11.1421
▁the▁lesser	-11.1424
▁become▁wise	-11.1427
▁kind▁of▁life	-11.1431
▁the▁ideal	-11.1432
▁than▁it▁is	-11.1436
▁to▁appear	-11.1438
▁this▁state	-11.1443
▁most▁men	-11.1443
▁marks	-11.1444
▁of▁sight	-11.1449
▁they▁may▁be	-11.145
say	-11.1454
▁the▁consequence	-11.1457
pos	-11.1457
▁knows▁nothing	-11.1457
▁the▁field	-11.146
▁come▁together	-11.1464
▁a▁change	-11.1466
▁do▁we▁say	-11.1466
▁the▁double	-11.1469
▁marked	-11.147
▁this▁discussion	-11.1471
s▁what▁I	-11.1472
▁what▁causes	-11.1473
▁to▁go▁through	-11.1476
▁more▁and▁less	-11.1483
▁hence	-11.1484
▁in▁praise	-11.1485
ing▁himself	-11.1489
▁so▁too	-11.1491
▁weigh	-11.1491
▁the▁cowardly	-11.1491
▁youths	-11.1492
rous	-11.1493
volving	-11.1498
▁these▁laws	-11.1501
▁slowly	-11.1501
▁chain	-11.1502
▁Then▁do	-11.1503
t▁just	-11.1504
▁each▁is	-11.1505
▁we▁mean	-11.1506
▁officer	-11.1508
▁whatever▁it▁is	-11.1509
▁any▁difference	-11.1511
▁within▁a	-11.1512
▁those▁present	-11.1512
▁aspect	-11.1514
▁a▁name▁is	-11.1514
▁have▁no▁need	-11.1515
▁artist	-11.1516
▁primary	-11.1522
▁purification	-11.1522
▁barbarian	-11.1527
▁After▁that	-11.1527
▁stayed	-11.1527
▁noticed	-11.1528
▁to▁start	-11.1541
▁in▁water	-11.1541
▁lesser	-11.1542
▁clarity	-11.1542
sses	-11.1545
▁cra	-11.1548
▁generations	-11.1549
▁most▁like	-11.155
▁might▁have	-11.1551
▁introduc	-11.1556
▁speak▁the▁truth	-11.1558
▁it▁this▁way	-11.1564
▁he▁may▁be	-11.1567
▁and▁music	-11.1568
▁those▁which	-11.157
▁from▁another	-11.1573
▁agreed▁upon	-11.1577
▁to▁refuse	-11.1578
▁a▁sign	-11.1581
▁silence	-11.1583
▁an▁eye	-11.1585
▁with▁themselves	-11.1586
▁to▁have▁it	-11.1588
mall	-11.1595
▁back▁again	-11.1596
▁to▁speak▁of	-11.1599
▁Muses	-11.1599
▁gentleman	-11.16
▁thin	-11.1601
▁looks▁like	-11.1601
▁have▁mentioned	-11.1601
t▁you▁also	-11.1608
▁by▁speaking	-11.1609
▁by▁an	-11.1612
spite	-11.1612
▁the▁heart	-11.1612
▁thinking▁of	-11.162
▁what▁he▁does	-11.1625
▁the▁rich	-11.1626
▁completion	-11.1626
virtue	-11.1632
▁before▁him	-11.1636
▁only▁what	-11.1637
▁thank	-11.1638
▁to▁be▁one	-11.1639
▁most▁pleasant	-11.164
▁squares	-11.1641
▁certainly▁do	-11.1643
▁each▁man	-11.1643
▁the▁plain	-11.1645
▁he▁goes	-11.1646
▁a▁short▁time	-11.1647
▁ago	-11.1651
▁contempt	-11.1658
▁he▁called	-11.1659
ed▁by▁a	-11.1662
▁will▁have▁to▁be	-11.1665
▁three▁kinds	-11.1665
▁Epi	-11.1667
▁are▁best	-11.1669
▁intervals	-11.1672
▁suppli	-11.1672
▁Men	-11.1677
▁threaten	-11.1678
▁noticed▁that	-11.168
▁in▁such▁cases	-11.1685
▁the▁Form	-11.1692
▁excel	-11.1692
▁succeeded	-11.1694
▁than▁itself	-11.1694
▁code	-11.1695
eading	-11.1695
▁translate	-11.17
▁wave	-11.1701
▁waver	-11.1707
▁continuous	-11.1707
▁provoke	-11.1708
▁recent	-11.171
▁alarm	-11.171
▁the▁relative	-11.1711
▁later▁on	-11.1711
▁the▁first▁two	-11.1712
▁century	-11.1716
▁cave	-11.1716
▁by▁others	-11.172
▁lea	-11.172
▁potter	-11.172
▁tiny	-11.1722
▁licentious	-11.1723
daemon	-11.1725
▁incorrect	-11.1725
▁solemn	-11.1727
▁Corinth	-11.1727
▁defect	-11.1727
▁bought	-11.1727
▁educating	-11.1727
▁proclamation	-11.1728
▁representatives	-11.1728
▁buried	-11.1728
▁confront	-11.1728
▁descent	-11.1728
▁hungry	-11.1728
▁gratification	-11.1728
▁morning	-11.1728
▁perceptible	-11.1728
▁They▁would	-11.1728
▁generous	-11.1728
▁gymnasia	-11.1728
▁insolent	-11.1728
▁caution	-11.1728
▁liberty	-11.1728
▁feather	-11.1728
▁rebuke	-11.1728
▁eleven	-11.1728
▁geometrical	-11.1728
▁gold▁or▁silver	-11.1728
▁inherent	-11.1728
▁composite	-11.1728
▁tendency	-11.1728
▁tribute	-11.1728
▁admission	-11.1728
▁dictate	-11.1728
▁deception	-11.1728
▁application	-11.1728
▁intensity	-11.1728
▁destiny	-11.1728
▁annual	-11.1728
▁a▁laughingstock	-11.1728
▁insolence	-11.1728
▁sweat	-11.1728
▁Pythodorus	-11.1728
▁readiness	-11.1728
▁unnecessary	-11.1728
▁ivory	-11.1728
▁crazy	-11.1728
▁glorious	-11.1728
▁his▁right▁mind	-11.1728
▁outlook	-11.1728
▁resolution	-11.1728
▁joking	-11.1728
▁crude	-11.1728
▁embarrassed	-11.1728
▁currency	-11.1728
▁lord	-11.1728
▁register	-11.1728
▁Archelaus	-11.1728
▁communicate	-11.1728
▁herdsmen	-11.1728
▁rash	-11.1728
▁scoundrels	-11.1729
▁injuries	-11.1729
▁Book	-11.1729
▁aiming▁at	-11.1729
▁co▁operate	-11.1729
▁at▁odds	-11.1729
▁incurable	-11.1729
▁sympathy	-11.1729
▁losing	-11.1729
▁enmity	-11.1729
▁in▁his▁turn	-11.1729
▁midst	-11.1729
▁preference	-11.173
▁reign	-11.173
▁more▁than▁the	-11.173
▁somebody▁else	-11.173
▁prosecution	-11.1731
in▁a▁certain▁way	-11.1731
▁cousin	-11.1731
▁daemons	-11.1731
▁pause	-11.1731
▁As▁far▁as▁I	-11.1731
▁my▁dear▁fellow	-11.1732
▁improvement	-11.1732
▁married	-11.1732
▁bile	-11.1733
▁Say	-11.1733
▁lavish	-11.1733
▁is▁beneficial	-11.1733
▁sale	-11.1734
▁perplexity	-11.1734
▁fasten	-11.1734
▁estimate	-11.1735
on▁each▁occasion	-11.1735
▁mar	-11.1735
▁are▁discussing	-11.1735
he▁conjecture	-11.1735
▁my▁dear▁friend	-11.1735
▁he▁pleases	-11.1736
▁It▁certainly▁is	-11.1736
▁no▁one▁else	-11.1737
▁true▁or▁false	-11.1737
▁dreadful	-11.1737
▁expounded	-11.1737
▁lie▁down	-11.1737
▁scattered	-11.1737
▁lift	-11.1738
▁greater▁or▁less	-11.1739
▁saying▁just▁now	-11.1739
▁jealousy	-11.1739
▁establishment	-11.1739
▁keep▁on	-11.174
▁graceful	-11.174
▁your▁state	-11.1741
▁recommendation	-11.1741
▁cared▁for	-11.1741
▁upset	-11.1741
▁ether	-11.1742
▁you▁asked▁me	-11.1742
▁Greek▁cities	-11.1742
▁civil	-11.1743
▁greed	-11.1744
▁makes▁us	-11.1746
▁weeping	-11.1747
▁hearers	-11.1747
▁accident	-11.1749
▁dwelling▁place	-11.1749
▁frightened	-11.1749
▁cost	-11.1749
▁good▁luck	-11.175
▁leap	-11.1751
▁the▁pair	-11.1752
▁agree▁on	-11.1752
odies	-11.1752
▁generalship	-11.1752
▁you▁will▁be	-11.1752
▁these▁cases	-11.1754
▁elderly	-11.1755
▁just▁anybody	-11.1756
▁frightening	-11.1758
▁At▁first	-11.1759
▁liable▁to▁a	-11.1761
▁a▁better▁man	-11.1762
▁each▁side	-11.1763
▁in▁vain	-11.1763
▁who▁could	-11.1764
▁in▁the▁street	-11.1765
▁inspect	-11.1767
▁nobler	-11.1767
▁in▁the▁process	-11.1768
▁out▁of▁it	-11.1768
▁Olympia	-11.177
▁the▁sound	-11.1772
▁boyfriend	-11.1772
▁who▁does	-11.1773
▁ode	-11.1775
▁thinkers	-11.1778
body	-11.1781
▁but▁let	-11.1781
▁inability	-11.1783
▁agent	-11.1786
▁You▁may	-11.1787
nyone▁else	-11.1787
▁the▁whole▁body	-11.1788
▁pronounc	-11.1788
▁second▁prize	-11.1789
▁Given	-11.1789
▁what▁is▁false	-11.179
eloponnesian▁War	-11.1791
▁the▁dog	-11.1792
▁at▁length	-11.1792
▁captured	-11.1792
▁compressed	-11.1794
▁just▁as▁you▁say	-11.1794
▁even▁though▁he	-11.1796
▁with▁anyone	-11.1798
▁to▁hunt	-11.1799
▁scholars	-11.1799
▁could▁be▁taught	-11.1799
▁bent	-11.18
▁perished	-11.1801
▁in▁comparison	-11.1802
▁usefulness	-11.1803
▁at▁hand	-11.1805
nomi	-11.1805
▁stream	-11.1806
▁equipped	-11.1806
▁We▁will	-11.1806
▁all▁along	-11.1807
s▁try	-11.1807
▁keep▁away	-11.1811
t▁matter	-11.1812
s▁father	-11.1814
▁we▁must▁say	-11.1814
▁know▁very▁well	-11.1815
▁is▁destroyed	-11.1816
▁did▁he	-11.1818
▁the▁other▁kind	-11.1818
▁such▁a▁state	-11.1818
▁told▁him	-11.182
▁to▁handle	-11.182
▁worst	-11.182
▁primary▁names	-11.1824
▁slower	-11.1825
▁rein	-11.1827
finitely	-11.1828
▁of▁all▁this	-11.1828
▁when▁he▁had	-11.1829
▁they▁thought	-11.1829
▁pay▁the▁penalty	-11.1831
▁their▁heads	-11.1835
▁hearted	-11.1835
▁denies	-11.1836
▁pretty▁n	-11.1837
▁sort▁of▁way	-11.184
▁I▁should▁think	-11.1841
▁in▁check	-11.1843
▁just▁like▁a	-11.1845
▁seiz	-11.1849
law	-11.1849
▁Thing	-11.1851
▁cit	-11.1852
▁one▁single	-11.1852
▁punishments	-11.1853
▁But▁as▁it▁is	-11.1855
war	-11.1858
▁to▁study	-11.1858
▁victim	-11.1859
▁unjust▁person	-11.186
▁You▁might	-11.186
▁if▁some	-11.1862
▁by▁the▁name	-11.1864
▁another▁man	-11.1865
▁as▁well▁as▁the	-11.1865
▁his▁heart	-11.1865
▁be▁taught	-11.1865
▁he▁takes	-11.1867
▁most▁excellent	-11.1867
▁seem▁to▁you▁to	-11.187
▁aristocrat	-11.1871
▁actions▁are	-11.1871
▁is▁convicted	-11.1875
▁Yes▁indeed	-11.1875
▁is▁known	-11.1877
▁private▁life	-11.188
▁wound	-11.1881
▁used▁for	-11.1883
▁a▁thing▁is	-11.1886
▁one▁cannot	-11.1887
▁is▁virtue	-11.1887
bo	-11.1887
▁to▁an▁agreement	-11.1888
▁cured	-11.1889
▁diseased	-11.1889
▁other▁sciences	-11.1889
▁about▁things	-11.1889
▁become▁clear	-11.189
▁to▁fall	-11.1901
▁our▁cities	-11.1905
t▁you▁think▁it	-11.1908
▁my▁point	-11.1911
▁gro	-11.1911
▁disagree▁with	-11.1912
state▁of▁affairs	-11.1913
▁and▁seek	-11.1914
▁what▁I▁want	-11.1914
▁have▁knowledge	-11.1916
▁Ares	-11.1917
▁by▁chance	-11.1923
▁protected	-11.1924
▁of▁the▁dead	-11.1925
▁your▁mother	-11.1926
ign	-11.193
▁of▁the▁kind	-11.1932
▁his▁home	-11.1932
▁other▁kinds	-11.1936
▁purifications	-11.1938
las	-11.194
▁an▁object	-11.1942
udge	-11.1944
▁go▁home	-11.1946
▁the▁tale	-11.1946
▁the▁upper	-11.1947
▁of▁beauty	-11.1947
▁away▁with	-11.1947
▁the▁interest	-11.1948
▁one▁side	-11.1949
mine	-11.195
▁are▁friends	-11.1951
▁what▁else	-11.1951
▁on▁its▁own	-11.1954
▁imagin	-11.1955
▁really▁does	-11.1956
▁million	-11.1956
reas	-11.1957
▁oaths	-11.1963
▁to▁the▁others	-11.1964
▁precautions	-11.1966
▁consist▁of	-11.1972
▁the▁reader	-11.1974
▁want▁to▁do	-11.1976
▁the▁same▁effect	-11.1977
▁gu	-11.1977
▁always▁the▁same	-11.1978
▁to▁be▁seen	-11.1981
▁in▁Sparta	-11.1983
▁the▁criminal	-11.1985
▁materials	-11.1987
▁diet	-11.1989
▁in▁geometry	-11.199
▁in▁doing	-11.199
▁of▁animals	-11.199
▁it▁really▁is	-11.1991
▁is▁set▁over	-11.1992
which▁is	-11.1993
▁sw	-11.1995
▁a▁strange	-11.1998
▁superior▁to▁the	-11.2001
▁that▁he▁could	-11.2005
▁but▁they▁are	-11.2006
▁me▁if▁I	-11.201
▁bearing	-11.2013
▁at▁another	-11.2015
▁poetic	-11.2016
pur	-11.2018
▁and▁shameful	-11.2018
ēsis	-11.2019
▁an▁unjust	-11.202
▁unless▁it	-11.2021
▁freely	-11.2025
▁Or▁are	-11.2027
▁narrow	-11.2028
▁any▁subject	-11.2031
▁relates	-11.2032
▁produces▁a	-11.2034
▁assumed	-11.2035
▁the▁mark	-11.2036
let	-11.204
▁a▁mortal	-11.2043
▁And▁must	-11.2043
W	-11.2049
pleasure▁or▁pain	-11.205
▁the▁noblest	-11.2051
▁had▁made	-11.2051
ve▁no	-11.2054
▁requirements	-11.2055
▁make▁use▁of▁th	-11.2055
▁appears▁to▁me	-11.206
▁important▁thing	-11.2061
▁nothing▁about	-11.2062
▁attempted	-11.2064
s▁captain	-11.2065
▁should▁we▁say	-11.2067
▁does▁not▁have	-11.2069
t▁it▁necessary	-11.2069
▁other▁words	-11.207
▁this▁fellow	-11.2071
▁to▁sit	-11.2071
▁whi	-11.2072
▁his▁voice	-11.2073
▁the▁whole▁soul	-11.2075
s▁no▁need	-11.2077
▁it▁would▁be▁a	-11.2078
▁I▁really▁do	-11.208
s▁and▁sacrifices	-11.2081
▁truer	-11.2082
▁half▁the	-11.2083
▁that▁by▁which	-11.2089
▁We▁ought	-11.2093
▁we▁call▁it	-11.2094
▁and▁pray	-11.2095
▁to▁touch	-11.2096
▁I▁agree▁that	-11.2098
▁as▁you▁did	-11.21
▁minded	-11.21
▁goes▁for	-11.2101
▁a▁tyrannical	-11.2104
▁commanders	-11.2104
▁of▁good▁things	-11.2104
▁I▁suppose▁he	-11.2109
▁pass▁on	-11.211
▁writers	-11.211
▁come▁to▁light	-11.2114
▁from▁any	-11.2116
▁what▁you▁are	-11.2121
▁to▁hate	-11.2127
▁em	-11.213
▁or▁someone▁else	-11.2131
▁techniques	-11.2134
▁If▁you▁had	-11.2136
▁serious▁about	-11.2137
▁that▁this▁is▁so	-11.2137
▁on▁which▁we	-11.2137
se▁conditions	-11.2138
abundance	-11.2139
▁in▁view▁of▁the	-11.214
▁gave▁them	-11.2141
▁So▁how	-11.2142
immias▁and▁Cebes	-11.2145
▁some▁of▁these	-11.2148
▁the▁praise	-11.2149
▁of▁reasoning	-11.2149
▁being▁seen	-11.215
▁if▁I▁had	-11.2153
▁insult	-11.2153
▁roughly	-11.2157
▁his▁household	-11.2157
▁he▁says▁that	-11.216
▁faction	-11.2168
▁canal	-11.2168
▁not▁allow	-11.2172
▁have▁a▁share	-11.2173
day	-11.2176
▁wise▁and▁good	-11.2177
▁to▁virtue	-11.2179
imit	-11.2179
▁districts	-11.218
t▁come	-11.2183
▁he▁meant	-11.2184
▁believe▁you	-11.2187
▁the▁circle	-11.2187
ll▁call	-11.2187
▁be▁taken	-11.2191
▁of▁courage	-11.2194
▁a▁decision	-11.2196
▁you▁wish	-11.2197
▁so▁often	-11.2197
ed▁himself	-11.2201
▁an▁explanation	-11.2207
▁the▁sick	-11.2213
s▁knowledge	-11.2214
▁person▁who	-11.2215
▁just▁described	-11.2216
▁a▁conversation	-11.2217
▁enumerate	-11.2217
▁admiration	-11.2222
▁survives	-11.2223
▁have▁lived	-11.2224
▁a▁prayer	-11.2224
▁the▁other▁cases	-11.2225
▁the▁force	-11.2226
▁persuades	-11.2227
▁teach▁them	-11.2227
▁dedicated	-11.2228
▁question▁of	-11.2228
love	-11.2229
▁your▁body	-11.2231
▁divide▁the	-11.2232
▁like▁me	-11.2236
▁red	-11.2238
▁by▁my	-11.2239
▁But▁if▁they	-11.2241
▁award	-11.2241
▁that▁it▁is▁not	-11.2243
▁hope▁that	-11.2245
▁has▁done	-11.2245
▁we▁were▁just	-11.225
▁the▁period	-11.2253
▁you▁please	-11.2256
▁we▁know▁that	-11.2259
▁join▁in	-11.2264
▁is▁going	-11.2264
▁the▁philosophic	-11.2267
▁addition	-11.2267
▁know▁nothing	-11.2269
▁true▁ones	-11.2285
▁the▁main	-11.2286
▁a▁war	-11.2291
▁almost▁a	-11.2298
▁putting▁the	-11.2299
▁his▁poetry	-11.23
▁anything▁more	-11.2304
▁quite▁clear	-11.2306
rant	-11.2307
▁one▁of▁his	-11.2311
▁its▁laws	-11.2315
▁to▁associate	-11.2315
▁very▁great	-11.2316
looking▁after	-11.2316
▁getting▁the	-11.2318
▁that▁is▁so	-11.2318
▁that▁doing▁what	-11.232
▁they▁need	-11.232
▁thousand▁years	-11.232
▁divided▁into	-11.2324
▁with▁something	-11.2327
▁my▁son	-11.2329
▁this▁wisdom	-11.2329
ly▁difficult	-11.2336
▁want▁to▁see	-11.2337
▁ask▁questions	-11.2337
▁lasts	-11.234
▁had▁done	-11.2341
▁to▁put▁it	-11.2341
▁give▁us▁a	-11.2343
▁performing	-11.2345
coming	-11.2345
▁because▁of▁that	-11.2347
▁she▁was	-11.2352
▁cause▁of▁all	-11.2356
▁a▁coward	-11.2357
▁could▁say	-11.2357
▁believe▁me	-11.2358
▁a▁multitude	-11.2361
▁dawn	-11.2362
▁projects	-11.2367
▁and▁greatest	-11.2369
▁people▁who▁know	-11.2369
▁contribution	-11.237
▁is▁pleasant	-11.2374
▁argues▁that	-11.2374
▁Then▁does	-11.2376
▁up▁again	-11.2381
▁defending	-11.2381
▁in▁favor	-11.2383
▁gets▁a	-11.2387
▁the▁way▁we	-11.2387
▁saying▁anything	-11.2388
▁it▁is▁also	-11.239
▁What▁if	-11.2392
▁the▁weak	-11.2395
▁and▁the▁bad	-11.2399
▁those▁others	-11.2402
▁have▁to▁do	-11.2404
▁it▁occurs	-11.2407
▁lesson	-11.2411
▁the▁opportunity	-11.2411
▁blow	-11.2412
char	-11.2416
▁households	-11.2419
▁these▁three	-11.2421
▁prescrib	-11.2428
▁thanks▁to▁the	-11.2429
▁tend▁to	-11.243
▁the▁fact	-11.2431
▁with▁what▁is	-11.2431
▁the▁tongue	-11.2432
▁instructed	-11.2433
▁you▁are▁saying	-11.2433
▁patron	-11.2433
▁crowned	-11.2434
fully	-11.2438
▁driving	-11.2438
▁Since▁we	-11.2438
▁asked▁you	-11.2439
▁way▁through	-11.2439
▁seasons	-11.2443
▁heavens	-11.2443
▁pregnant	-11.2445
▁orbit	-11.2445
▁quarrels	-11.2449
▁these▁bodies	-11.2449
▁the▁journey	-11.245
▁So▁tell▁me	-11.2452
▁sections	-11.2458
ll▁answer	-11.2459
▁the▁pursuit	-11.2459
▁what▁is▁due	-11.2468
▁to▁lead	-11.2472
▁reside	-11.2472
▁steer	-11.2478
▁of▁all▁sorts	-11.2486
▁with▁the▁gods	-11.2489
▁to▁save	-11.2489
ctually	-11.2491
▁he▁wanted	-11.2495
▁possessor	-11.2497
▁two▁forms	-11.2498
▁to▁tell▁me	-11.2502
▁most▁ancient	-11.2503
▁deme	-11.2505
▁will▁turn▁out	-11.2507
▁Egypt	-11.2511
▁have▁said	-11.2514
▁him▁up	-11.2515
▁But▁first	-11.2517
▁the▁stream	-11.2517
▁hymn	-11.2518
▁organ	-11.252
▁instinct	-11.2522
▁the▁Cretans	-11.2522
▁hunter	-11.2522
▁acknowledge	-11.2527
▁to▁manage	-11.2528
aving	-11.2529
▁shown▁that	-11.253
▁cowards	-11.2531
▁known▁as	-11.2531
▁decid	-11.2533
▁upon▁him	-11.2545
▁this▁purpose	-11.2545
▁remain▁in	-11.2546
▁a▁community	-11.2547
▁cr	-11.2548
▁store	-11.2553
▁mina	-11.2553
▁For▁a	-11.2554
▁is▁born	-11.2555
▁You▁would	-11.2555
▁elect	-11.2556
▁to▁test	-11.2557
▁a▁disease	-11.2563
▁begg	-11.2565
▁allocate	-11.2567
▁drachma	-11.257
▁oppos	-11.2571
▁teach▁him	-11.2572
▁definitions	-11.2574
▁this▁science	-11.2575
▁to▁eat	-11.2576
▁many▁of▁them	-11.2577
▁generated	-11.2577
▁of▁any▁kind	-11.258
▁two▁of▁them	-11.2581
▁we▁must▁suppose	-11.2584
▁Guardian	-11.2586
▁convict	-11.2588
▁every▁day	-11.2595
▁want▁you	-11.2597
▁victims	-11.2597
▁though▁not	-11.2598
▁of▁his▁soul	-11.2599
▁arouse	-11.2599
▁warm	-11.2599
hor	-11.26
▁match	-11.26
▁is▁a▁fine▁thing	-11.2603
▁reading	-11.2604
t▁you▁realize	-11.2605
▁comprehend	-11.2606
▁is▁found	-11.2608
▁a▁craftsman	-11.2612
▁formula	-11.2613
▁say▁that▁he	-11.2613
▁benefited	-11.2613
▁go▁away	-11.2615
ler	-11.2616
▁deity	-11.2617
▁Hipparchus	-11.262
▁they▁receive	-11.2623
▁considerations	-11.2625
▁he▁thinks▁he	-11.2625
▁theater	-11.2626
▁that▁I▁should	-11.2626
▁I▁took	-11.2627
L	-11.2632
▁And▁have	-11.2632
F	-11.2632
third	-11.2633
▁thick	-11.2634
▁this▁city	-11.2634
▁came▁in	-11.2641
▁super	-11.2646
▁The▁Athenian	-11.2646
▁inspire	-11.2646
▁strain	-11.2651
▁One▁should	-11.2651
▁on▁the▁ba	-11.2655
▁weighing	-11.2656
▁since▁you▁have	-11.2658
rule	-11.2659
▁opposition	-11.266
▁each▁of▁you	-11.2661
▁dim	-11.2664
▁trap	-11.2664
▁Eu	-11.2666
▁of▁oratory	-11.2667
informed	-11.2668
▁has▁any	-11.2675
▁are▁born	-11.2675
▁lengths	-11.2676
▁is▁produced	-11.2679
▁cease▁to▁be	-11.2684
▁about▁names	-11.2687
ick	-11.2691
▁you▁think▁you	-11.2695
▁same▁subjects	-11.2696
▁the▁other▁gods	-11.2699
▁plays	-11.2699
▁archer	-11.27
▁of▁the▁sea	-11.2701
▁rot	-11.2704
t▁you▁say▁that	-11.2705
▁the▁other▁three	-11.2706
▁organize	-11.2709
▁intent	-11.2709
par	-11.2711
▁lawgivers	-11.2712
▁have▁happened	-11.2715
▁He▁has	-11.2715
▁the▁owner	-11.2716
▁in▁some▁s	-11.2717
▁Attic	-11.2719
▁Greek▁word	-11.272
▁reform	-11.272
▁the▁same▁with	-11.272
▁erotic	-11.2721
▁forgetful	-11.2723
▁I▁am▁going	-11.2723
▁plea	-11.2724
▁Atlanti	-11.2725
▁colony	-11.2726
nowledge	-11.2726
isitor	-11.2727
▁mount	-11.2727
▁circuit	-11.2727
▁naming	-11.2727
▁Magnesia	-11.2728
▁reared	-11.2728
▁swarm	-11.2728
▁whorl	-11.2728
▁suspicion	-11.2728
▁Scythia	-11.2728
▁trading	-11.2728
▁leather	-11.2728
▁selfcontrol	-11.2728
s▁what▁I▁think	-11.2728
▁boundaries	-11.2728
▁pretext	-11.2728
▁decline	-11.2728
▁disastrous	-11.2728
▁guarantee	-11.2728
▁subsection	-11.2728
▁withdraw	-11.2728
▁could▁there▁be	-11.2728
▁restoration	-11.2728
▁bulk	-11.2728
▁blacksmith	-11.2728
▁jurymen	-11.2728
▁controversy	-11.2728
phrosunē	-11.2728
▁barley	-11.2728
▁deaf	-11.2728
▁Pythagorean	-11.2728
▁resume	-11.2728
▁imprint	-11.2728
▁remote	-11.2728
▁savior	-11.2728
▁stamp	-11.2728
▁traits	-11.2728
▁couple	-11.2728
▁inherited	-11.2728
▁significant	-11.2728
▁await	-11.2728
▁sprung	-11.2728
▁forebears	-11.2728
▁illegitimate	-11.2728
▁desperate	-11.2728
▁drill	-11.2728
▁communities	-11.2728
▁motive	-11.2728
▁obedient	-11.2728
▁magnitude	-11.2728
▁undone	-11.2728
▁contemporary	-11.2728
▁embroider	-11.2728
▁literature	-11.2728
▁young▁or▁old	-11.2728
▁admonition	-11.2728
▁ravage	-11.2728
▁emphatically	-11.2728
▁spontaneous	-11.2728
▁gesture	-11.2728
▁marvellous	-11.2728
▁mysteries	-11.2728
▁proclaim	-11.2728
▁trireme	-11.2728
bol	-11.2728
▁From▁this	-11.2728
▁emptied	-11.2728
▁entity	-11.2728
▁day▁and▁night	-11.2728
▁flute▁playing	-11.2728
▁garland	-11.2728
▁Finally	-11.2728
▁Ammon	-11.2728
▁expelled	-11.2728
▁Far▁from▁it	-11.2728
▁premeditation	-11.2728
uch▁way▁as▁this	-11.2729
▁wool▁working	-11.2729
▁nobly	-11.2729
▁label	-11.2729
▁subdivision	-11.2729
▁ponder	-11.2729
▁rising	-11.2729
▁secondly	-11.2729
▁remarkably	-11.2729
▁in▁just▁the▁way	-11.2729
▁prosperity	-11.2729
▁proud	-11.2729
▁stuck	-11.2729
▁temple▁robber	-11.2729
▁illustration	-11.2729
▁to▁figure▁out	-11.2729
▁in▁all▁respects	-11.273
▁barren	-11.273
▁haul	-11.273
▁twenty▁years	-11.273
▁To▁begin▁with	-11.273
▁reaction	-11.273
▁resistance	-11.273
▁acts▁unjustly	-11.273
▁the▁next▁step	-11.273
▁spear	-11.273
▁corner	-11.2731
▁positive	-11.2731
▁heavier	-11.2731
▁other▁way	-11.2731
▁unintentionally	-11.2731
▁rhetorician	-11.2732
▁careless	-11.2732
▁successive	-11.2733
▁disputation	-11.2733
▁lawlessness	-11.2733
▁Erasistratus	-11.2734
▁barely	-11.2734
▁satisfactorily	-11.2734
urious	-11.2734
▁run▁as▁follows	-11.2734
▁occurred▁to▁me	-11.2734
▁to▁become▁wise	-11.2735
▁self▁sufficient	-11.2736
▁bravery	-11.2736
▁prisoners	-11.2736
▁listeners	-11.2736
▁cling	-11.2738
▁left▁behind	-11.2739
▁for▁that▁matter	-11.274
▁whenever▁I	-11.274
▁the▁present▁day	-11.274
▁forcing	-11.2741
▁reli	-11.2741
▁is▁forced▁to	-11.2742
▁cultivat	-11.2742
▁another▁kind	-11.2742
▁Evenus	-11.2742
▁hook	-11.2743
▁fraction	-11.2744
▁Hestia	-11.2744
▁Naturally	-11.2745
▁addresses	-11.2745
▁Guardian▁of▁the	-11.2745
s▁reasonable	-11.2746
▁pretty▁much▁t	-11.2747
▁carrying▁out	-11.2747
▁consecrated	-11.2748
▁fearless	-11.2748
▁Speaking	-11.2749
▁an▁appetite▁for	-11.2749
▁formal	-11.2749
▁missed	-11.275
▁quickness	-11.2751
▁its▁own▁work	-11.2752
▁an▁official	-11.2752
▁and▁strong	-11.2753
▁be▁treated	-11.2757
▁the▁palace	-11.2757
▁wedding	-11.2758
▁at▁issue	-11.2759
▁softness	-11.276
▁other▁citizens	-11.2762
on▁to▁itself	-11.2763
▁profits	-11.2765
▁both▁sides	-11.2765
▁operate	-11.2767
▁collectively	-11.2768
▁hypothesize	-11.2769
▁brought▁a	-11.277
▁tell▁him▁that	-11.277
▁missing	-11.277
▁in▁spite▁of▁the	-11.2771
polis	-11.2772
▁sworn	-11.2773
place	-11.2774
▁power▁to▁lie	-11.2774
▁equal▁to▁itself	-11.2774
▁manufacture	-11.2774
▁Necessarily	-11.2776
▁testing	-11.2776
▁took▁up	-11.2777
▁a▁bad▁man	-11.2778
▁act▁unjustly	-11.2778
▁get▁angry	-11.2779
▁the▁idea▁that	-11.278
▁every▁year	-11.278
▁at▁Athens	-11.278
▁coin	-11.2781
s▁like▁these	-11.2781
▁hardness	-11.2782
▁related▁to▁the	-11.2783
▁eyesight	-11.2785
▁wearing	-11.2788
▁which▁we▁have	-11.2789
▁copies	-11.2789
per	-11.2793
▁verses	-11.2794
▁for▁that▁reason	-11.2795
▁their▁minds	-11.2799
▁to▁human▁beings	-11.2799
▁flute▁players	-11.2803
▁Forms	-11.2805
▁center	-11.2806
anax	-11.2807
▁from▁the▁dead	-11.2808
▁of▁bodies	-11.2809
▁safer	-11.281
▁farm	-11.2812
▁downward	-11.2813
▁tunes	-11.2813
▁benefit▁us	-11.2815
▁necessarily▁be	-11.2818
▁It▁may▁be	-11.2818
▁by▁its▁nature	-11.2821
▁the▁first▁time	-11.2823
▁slipp	-11.2823
▁chooses	-11.2823
▁cut▁off	-11.2823
▁my▁defense	-11.2823
▁trust▁you	-11.2826
Wise	-11.2829
▁la	-11.283
▁in▁other▁cases	-11.2831
laws	-11.2832
ato	-11.2833
▁accusers	-11.2833
▁came▁to▁me	-11.2837
▁dye	-11.284
▁he▁will▁say	-11.284
▁in▁his▁city	-11.2841
▁the▁questioner	-11.2841
▁in▁our▁view	-11.2841
▁guides	-11.2842
▁prized	-11.2843
▁to▁watch	-11.2844
▁the▁action	-11.2844
▁with▁such▁a	-11.2845
ke	-11.2845
▁to▁reason	-11.2845
▁aware	-11.2848
▁the▁text	-11.2849
▁see▁them	-11.285
▁workers	-11.2851
divided▁into▁two	-11.2852
sence▁of▁science	-11.2852
▁certainly▁won	-11.2853
▁take▁charge	-11.2854
▁a▁big	-11.2855
▁in▁one▁way	-11.2859
▁it▁seem▁to▁you	-11.286
▁to▁propose	-11.2861
▁serves	-11.2862
▁induce	-11.2862
▁his▁master	-11.2863
▁sleeping	-11.2863
▁in▁judgment	-11.2864
▁after▁another	-11.2871
▁twisting	-11.2872
▁examine▁it	-11.2874
unt	-11.288
ush	-11.2882
▁stretching	-11.2883
▁pressed	-11.2883
▁in▁a▁short▁time	-11.2884
▁creates	-11.2884
▁Ch	-11.2886
▁his▁wife	-11.2886
▁for▁yourselves	-11.2888
▁in▁town	-11.2889
▁from▁the▁rest	-11.289
▁a▁correct	-11.2891
▁no▁further	-11.2892
▁too▁long	-11.2896
▁in▁the▁country	-11.2898
▁hire	-11.2898
▁you▁say▁is▁true	-11.2899
▁object▁to	-11.29
▁a▁crowd	-11.2906
▁many▁forms	-11.2907
▁an▁eye▁on	-11.291
▁owed	-11.2912
▁You▁think	-11.2912
▁carry▁out	-11.2912
d▁have▁to	-11.2914
▁adapted	-11.2915
▁in▁wisdom	-11.2915
▁under▁the▁same	-11.2918
▁the▁night	-11.2919
▁idiot	-11.292
▁Iliad	-11.2924
▁do▁not▁exist	-11.2925
▁carrying▁on	-11.2926
▁as▁its	-11.2926
▁moderately	-11.2927
▁channels	-11.293
▁undertaken	-11.2932
▁deserted	-11.2932
▁united	-11.2933
s▁souls	-11.2937
ired	-11.2937
▁along▁with▁you	-11.2937
▁Then▁they	-11.2939
▁this▁skill	-11.294
▁it▁produces	-11.2944
▁counting	-11.2947
▁minas	-11.2949
▁criminals	-11.2949
▁it▁would▁seem	-11.295
eason	-11.2951
▁his▁companions	-11.2954
▁the▁charioteer	-11.2956
▁carpenters	-11.2958
t▁true	-11.296
▁of▁the▁stars	-11.2963
▁Does▁he	-11.2963
▁possess▁it	-11.2968
knowledge	-11.2968
▁your▁position	-11.297
▁has▁learned	-11.2975
▁Nor▁would	-11.2976
▁with▁her	-11.2979
▁an▁enormous	-11.298
▁as▁long▁as▁the	-11.2982
▁the▁boundary	-11.2986
▁realizing▁it	-11.2986
▁and▁establish	-11.2986
▁liars	-11.2987
ed▁into▁the	-11.2989
t▁all	-11.2992
▁my▁account	-11.2994
▁a▁power	-11.2994
▁resides	-11.2994
t▁know▁how▁to	-11.2998
▁its▁possessor	-11.2998
▁all▁others	-11.3003
▁you▁believe	-11.3004
▁a▁further▁point	-11.3004
t▁exist	-11.3005
▁to▁be▁allowed	-11.3005
▁I▁told▁you	-11.3005
▁of▁that▁time	-11.301
▁some▁one▁thing	-11.301
pan	-11.3012
▁lasting	-11.3017
▁giving▁advice	-11.3018
▁question▁him	-11.302
▁to▁remember	-11.3024
▁that▁is▁why	-11.3024
▁but▁never	-11.3025
▁with▁himself	-11.3028
▁is▁one▁of▁the	-11.3029
▁He▁would	-11.303
▁poor▁man	-11.3031
▁a▁household	-11.3032
▁we▁must▁do	-11.3035
d▁rather	-11.3035
▁devices	-11.3039
▁of▁clothes	-11.3041
▁binding	-11.3041
▁than▁pleasure	-11.3041
▁then▁also	-11.3043
itself▁by▁itself	-11.3043
▁I▁take▁it▁that	-11.3045
▁contemplate	-11.3045
▁constituted	-11.3047
▁for▁each▁thing	-11.3052
▁to▁call▁him	-11.3057
▁all▁three	-11.3059
▁those▁two	-11.3061
▁take▁me	-11.3063
▁to▁break	-11.3064
▁is▁not▁to▁be	-11.3065
▁twist	-11.3066
▁is▁worse	-11.3066
▁in▁due▁measure	-11.3067
ax	-11.3069
▁Do▁you▁think▁it	-11.307
▁of▁these▁people	-11.307
▁accomplishments	-11.3075
▁the▁addition	-11.3077
▁impress	-11.3078
▁the▁farmers	-11.3083
▁an▁animal	-11.3086
▁to▁cut	-11.3086
▁sixth	-11.3089
ult	-11.3095
▁three▁parts	-11.3095
▁if▁he▁wanted▁to	-11.3096
land	-11.3097
▁no▁thought	-11.3098
▁the▁teacher	-11.3098
▁to▁all▁the	-11.31
▁two▁names	-11.3102
▁shall▁I	-11.3105
▁to▁give▁up	-11.3107
▁a▁likeness	-11.3109
▁reluctantly	-11.311
▁of▁the▁land	-11.3113
▁made▁us	-11.3114
▁comes▁to▁be▁o	-11.3114
▁ages	-11.3115
▁if▁you▁do	-11.3116
▁the▁reality	-11.3118
xis	-11.3118
▁the▁race	-11.312
▁same▁things	-11.3121
▁a▁shuttle	-11.3129
▁why▁we	-11.313
▁from▁Homer	-11.3131
▁beating	-11.3132
▁is▁ignorant	-11.3132
uff	-11.3134
▁the▁master	-11.3135
▁I▁made	-11.3135
▁what▁belongs	-11.3136
▁of▁other▁people	-11.3137
▁the▁element	-11.3142
▁feasts	-11.3143
▁offenses	-11.3145
▁say▁to▁him	-11.3145
▁for▁the▁state	-11.3148
▁the▁lines	-11.3149
▁reput	-11.3151
▁like▁those	-11.3155
▁more▁just	-11.3159
▁For▁he	-11.3159
▁more▁highly	-11.3159
s▁affairs	-11.3165
▁this▁part▁of	-11.3169
tion▁of	-11.317
▁What▁then	-11.317
▁are▁said	-11.3175
▁a▁unity	-11.3177
▁say▁what▁it▁is	-11.3183
▁the▁combination	-11.3183
▁deserved	-11.319
▁any▁man▁who	-11.3192
▁I▁was▁saying	-11.3194
▁other▁cases	-11.3195
▁of▁the▁thing	-11.3195
tru	-11.3198
▁have▁we	-11.32
▁other▁states	-11.3202
▁their▁ancestors	-11.3205
▁in▁our▁soul	-11.3207
▁should▁be▁given	-11.3211
▁our▁minds	-11.3211
▁greater▁good	-11.3213
▁and▁the▁third	-11.3215
▁conjectur	-11.3216
▁never▁get	-11.3229
▁artful	-11.323
▁at▁your	-11.3231
▁the▁temperate	-11.3232
▁what▁he▁knows	-11.3232
▁were▁so	-11.3234
▁the▁chorus	-11.3238
▁talked▁about	-11.3239
▁in▁the▁way▁we	-11.324
nai	-11.324
▁good▁reason	-11.3243
aei	-11.3245
▁had▁gone	-11.3245
▁he▁call	-11.3246
▁murders	-11.3248
▁has▁some	-11.325
▁in▁short	-11.3252
▁asserts	-11.3252
▁of▁the▁day	-11.3254
▁the▁Scrutineers	-11.3256
▁merely▁a	-11.3261
▁homes	-11.3263
▁more▁correct	-11.3264
.▁.▁.	-11.3266
▁What▁sort	-11.3267
▁this▁speech	-11.3268
▁he▁becomes	-11.3268
outh	-11.3278
▁the▁assembly	-11.3279
al▁condition	-11.3284
▁anxious	-11.3285
▁have▁died	-11.3286
▁agreements	-11.3287
▁be▁prepared	-11.3288
cal	-11.329
▁is▁composed	-11.3292
▁to▁the▁art	-11.3295
ey	-11.3297
▁other▁objects	-11.3297
▁with▁words	-11.3299
▁what▁we▁were	-11.3304
▁know▁how▁to▁use	-11.3304
▁gatherings	-11.3306
▁the▁sign	-11.3307
▁a▁person▁is	-11.3308
▁a▁square	-11.3312
▁already▁know	-11.3312
duly	-11.3312
▁such▁knowledge	-11.3313
▁make▁one	-11.3314
▁spiritual▁thing	-11.3314
▁show▁me	-11.3315
▁being▁able	-11.3315
▁good▁hope	-11.3317
▁think▁we	-11.3317
▁distinguishe	-11.3319
▁of▁the▁latter	-11.332
▁is▁far	-11.3324
▁what▁is▁called	-11.3326
▁all▁cases	-11.3327
▁to▁make▁him	-11.3328
▁be▁made	-11.3331
▁has▁become▁a	-11.3332
▁a▁year	-11.3333
▁for▁their▁own	-11.3336
▁it▁gives	-11.3338
▁becomes▁a	-11.334
▁the▁marrow	-11.334
▁the▁strings	-11.3342
▁parallel	-11.3342
▁and▁offer	-11.335
▁one▁of▁our	-11.335
▁competitive	-11.3351
▁we▁should▁say	-11.3357
▁of▁ruling	-11.3358
▁than▁knowledge	-11.336
▁a▁cause	-11.3363
▁adorn	-11.3363
▁examine▁what	-11.3365
▁And▁indeed	-11.3365
▁the▁territory	-11.3366
▁a▁story	-11.3366
▁ask▁him	-11.3368
▁have▁received	-11.3371
▁the▁priests	-11.3372
▁desired	-11.3373
▁worst▁thing	-11.3377
▁admir	-11.3381
▁the▁money	-11.3384
▁has▁an	-11.3385
▁invent	-11.3385
re▁really	-11.3385
▁the▁tribe	-11.3387
▁stimulat	-11.3387
▁Is▁there▁any	-11.3389
▁to▁begin	-11.3392
▁the▁bad▁ones	-11.3392
▁he▁wanted▁to	-11.3396
▁the▁other▁half	-11.3399
▁to▁the▁whole	-11.3399
▁with▁every	-11.3402
ume	-11.3402
▁their▁natures	-11.3406
▁calculations	-11.3409
▁shuttle	-11.3409
▁very▁fine	-11.3416
▁and▁how▁they	-11.3419
▁yet▁another	-11.3421
▁to▁destroy	-11.3422
▁it▁flows	-11.3422
▁should▁say	-11.3435
ublic▁or▁private	-11.3438
▁travell	-11.3447
▁the▁other▁way	-11.3451
▁people▁think	-11.3452
▁upwards	-11.3453
▁the▁sixth	-11.3455
port	-11.3455
▁other▁matters	-11.3456
cat	-11.3458
▁of▁the▁case	-11.3459
▁he▁has▁done	-11.3464
▁last▁thing	-11.3469
▁voices	-11.347
▁the▁kings	-11.3471
▁we▁should▁have	-11.3473
▁to▁the▁true	-11.3477
▁happiest	-11.3479
▁of▁the▁island	-11.3479
▁the▁army	-11.348
▁steps	-11.3483
t▁you▁say	-11.3485
▁to▁put▁up▁with	-11.3486
▁curse	-11.3492
▁false▁witness	-11.3493
▁The▁man	-11.3507
▁positions	-11.3509
▁remembers	-11.3509
▁faults	-11.3509
▁create	-11.351
▁It▁will	-11.3512
▁distinguishing	-11.3514
long▁to	-11.3516
▁to▁happen	-11.3518
▁look▁into▁it	-11.3518
▁his▁subject	-11.3518
▁readers	-11.352
▁on▁something	-11.3522
▁the▁honor	-11.3523
sia	-11.3527
▁of▁evils	-11.3531
▁in▁detail	-11.3531
▁been▁made	-11.3533
▁in▁a▁dream	-11.3534
▁is▁impious	-11.3536
lic	-11.3536
▁a▁thorough	-11.3547
▁supervisor	-11.3548
▁in▁the▁second	-11.3552
▁categories▁of	-11.3554
▁to▁found	-11.3556
▁well▁known	-11.3561
▁opine	-11.3563
▁would▁follow	-11.3575
▁I▁shall▁never	-11.3575
▁become▁more	-11.358
▁to▁read	-11.3581
▁the▁revolution	-11.3581
▁that▁they▁can	-11.3582
▁plurality	-11.3588
▁kind▁of▁soul	-11.359
▁philosophy▁in	-11.3592
▁the▁pain	-11.3592
▁a▁book	-11.3592
ease	-11.3595
▁the▁answers	-11.3602
▁the▁sciences	-11.3604
amb	-11.3606
▁channel	-11.3619
▁the▁charm	-11.362
▁headed	-11.3625
▁the▁crime	-11.3629
▁in▁conversation	-11.3638
▁these▁four	-11.3643
▁he▁loves	-11.3643
▁know▁this	-11.3644
▁sustain	-11.3645
▁complaint	-11.3647
▁these▁terms	-11.3648
▁these▁lines	-11.3652
▁are▁given	-11.3653
▁the▁deceased	-11.3654
▁far▁superior	-11.3655
▁jest	-11.3658
▁a▁larger	-11.366
▁messenger	-11.3663
▁would▁give	-11.3664
▁inhabitants	-11.3671
correct	-11.3671
▁None▁of▁the	-11.3674
▁obeys	-11.3675
▁awful	-11.3677
▁must▁it▁not	-11.3677
▁behav	-11.3679
▁in▁Homer	-11.368
lder▁or▁younger	-11.3681
▁more▁and▁more	-11.3681
▁that▁all▁the	-11.3682
▁burden	-11.3682
▁no▁objection	-11.3684
▁different▁name	-11.3686
▁disintegrate	-11.369
▁he▁must▁be▁p	-11.3691
▁it▁might	-11.3697
▁rever	-11.3701
▁it▁could▁not	-11.3702
▁Tell	-11.3708
▁huge	-11.3709
▁regulate	-11.3711
pple	-11.3711
▁lovely	-11.3713
ew	-11.3728
know	-11.3733
▁a▁noble	-11.3734
▁give▁you▁a	-11.3737
j	-11.3737
wa	-11.3737
▁announce	-11.3739
fortunate	-11.3741
▁frank	-11.3741
▁up▁to▁the	-11.3742
▁of▁horses	-11.3743
class	-11.3744
superior	-11.3744
human	-11.3744
Tell▁me	-11.3744
▁for▁my▁part	-11.3745
▁in▁thought	-11.3746
▁a▁statesman	-11.3747
pon	-11.3751
Is▁it▁possible	-11.3753
▁of▁friends	-11.3756
▁either▁of▁these	-11.3759
▁how▁long	-11.3759
▁we▁sha	-11.376
▁continu	-11.3761
▁are▁left	-11.3761
▁as▁though▁it	-11.3762
▁who▁said	-11.3764
▁to▁send▁him	-11.3765
▁shameful▁thing	-11.3767
▁the▁un	-11.3771
▁years▁of▁age	-11.3771
▁an▁agreement	-11.3772
▁men▁call	-11.3773
t▁possibly	-11.3775
▁frighten	-11.3777
▁think▁that▁the	-11.3778
▁we▁ourselves	-11.3779
▁the▁result▁that	-11.3781
t▁the▁hands▁of▁a	-11.3782
▁dedicat	-11.3785
▁instant	-11.3785
▁pertain	-11.379
▁Delphi	-11.379
▁most▁shameful	-11.3793
▁humankind	-11.3801
▁and▁cowardice	-11.3802
▁person▁would	-11.3808
▁the▁leader	-11.3808
▁monster	-11.3809
▁thinks▁he	-11.3812
▁rapid	-11.3812
s▁all▁right	-11.3813
▁independent	-11.3817
▁ultimate	-11.3818
▁be▁refuted	-11.3818
▁instead▁of▁a	-11.3819
▁give▁me▁a	-11.3819
▁restore	-11.382
▁ear	-11.3821
▁ever▁have	-11.3823
▁of▁the▁kings	-11.3823
▁angle	-11.3823
▁numb	-11.3824
▁inexperience	-11.3824
▁is▁caught	-11.3826
▁furthermore	-11.3827
▁temp	-11.3831
itude	-11.3831
▁recreation	-11.3832
▁unmixed	-11.3832
▁emotion	-11.3832
▁efficient	-11.3833
▁where▁I	-11.3833
where	-11.3834
▁ended	-11.3837
▁dialect	-11.3837
▁exert	-11.3837
▁wreath	-11.3837
▁abundant	-11.3837
▁are▁you▁saying	-11.3837
chiev	-11.3838
▁bread	-11.3838
▁survey	-11.3838
▁epic	-11.3838
▁moist	-11.3839
▁breast	-11.3839
▁stroke	-11.3839
▁detect	-11.3839
▁program	-11.3839
▁eclipse	-11.3839
▁whipping	-11.3839
▁champion	-11.3839
▁purple	-11.3839
▁wreck	-11.3839
▁sureties	-11.3839
▁substantial	-11.3839
▁whipped	-11.3839
▁appellation	-11.3839
▁occurrence	-11.3839
▁cultural	-11.3839
▁cobbling	-11.3839
▁valid	-11.3839
▁analogous	-11.3839
▁echo	-11.3839
▁incommensurable	-11.3839
▁Living▁Thing	-11.3839
▁institute	-11.3839
▁overturn	-11.3839
▁curable	-11.3839
▁spindle	-11.3839
▁Aspasia	-11.3839
▁mathematician	-11.3839
▁imitative	-11.3839
▁devotion	-11.3839
▁dumb	-11.3839
▁incomplete	-11.3839
▁unknowable	-11.3839
▁all▁of▁a▁sudden	-11.3839
▁reserve	-11.3839
▁restrict	-11.3839
▁specimen	-11.3839
on▁of▁Hipponicus	-11.3839
paradoxical	-11.3839
▁a▁mirror	-11.3839
▁contemporaries	-11.3839
▁discredit	-11.3839
▁monument	-11.3839
▁owing▁to▁the	-11.3839
▁sorrow	-11.3839
▁rogue	-11.3839
▁framework	-11.3839
▁arrest	-11.3839
▁safe▁and▁sound	-11.3839
▁mourn	-11.3839
▁undertook	-11.3839
▁brevity	-11.3839
▁disciple	-11.3839
▁on▁his▁behalf	-11.3839
▁substitute	-11.3839
▁unfamiliar	-11.3839
▁cowherd	-11.3839
▁deficiencies	-11.3839
▁satyr	-11.3839
▁sprang	-11.3839
▁For▁this▁reason	-11.3839
▁horsemanship	-11.3839
▁thief	-11.3839
▁Follow	-11.3839
▁blushed	-11.3839
▁potential	-11.3839
▁mercenaries	-11.3839
▁I▁assure▁you	-11.3839
▁the▁remainder	-11.3839
▁accent	-11.3839
▁navigation	-11.3839
▁unintelligent	-11.3839
▁exchanging	-11.3839
▁score	-11.3839
▁victorious	-11.3839
▁Truth	-11.3839
▁endorse	-11.3839
▁the▁eighth	-11.3839
▁injured▁party	-11.384
▁surgery	-11.384
▁hospitality	-11.384
▁Olympus	-11.384
▁beforehand	-11.384
▁plus	-11.384
▁continually	-11.384
▁eminent	-11.384
▁parentage	-11.384
▁defective	-11.384
▁persistent	-11.384
▁derived▁from	-11.384
ikē	-11.3841
▁influences	-11.3841
▁begun	-11.3841
▁kindred	-11.3841
▁picked▁up	-11.3841
▁salt	-11.3841
▁During▁the	-11.3841
▁sowing	-11.3841
▁drunken	-11.3841
▁intact	-11.3841
▁favorite	-11.3842
▁sanctuary	-11.3842
▁sang	-11.3842
▁deposition	-11.3842
▁brought▁them	-11.3842
▁of▁Atlantis	-11.3842
▁told▁you	-11.3842
▁commonplace	-11.3842
▁not▁perceiving	-11.3842
▁abolished	-11.3842
▁better▁or▁worse	-11.3843
▁in▁both▁cases	-11.3843
▁drunkenness	-11.3843
▁boxer	-11.3843
▁earth▁and▁air	-11.3844
▁justification	-11.3844
▁have▁found	-11.3844
▁feel▁enjoyment	-11.3844
▁workmen	-11.3844
▁hardship	-11.3844
▁funny	-11.3845
▁persuade▁you	-11.3845
▁circumference	-11.3846
▁hear▁them	-11.3846
▁the▁liver	-11.3846
▁frankness	-11.3846
▁searching▁for	-11.3847
▁sung	-11.3847
▁eliminated	-11.3847
▁puzzled	-11.3847
▁deprivation	-11.3848
▁forgetfulness	-11.3848
▁by▁that▁name	-11.3848
▁in▁this▁field	-11.3848
▁indefinitely	-11.3848
▁archery	-11.3849
▁Greek▁world	-11.3849
▁housebuilding	-11.385
▁alliance	-11.385
▁will▁they▁be	-11.385
rap	-11.385
▁at▁Olympia	-11.3851
▁tender	-11.3851
▁recount	-11.3851
sible	-11.3853
▁performers	-11.3853
kill	-11.3854
▁in▁this▁fashion	-11.3854
▁carried▁away	-11.3855
▁the▁gates	-11.3855
▁at▁that▁point	-11.3855
▁death▁penalty	-11.3856
▁art▁of▁speaking	-11.3856
▁accompanies	-11.3856
▁astronomer	-11.3856
ll▁need	-11.3858
▁More	-11.3858
▁announced	-11.3859
▁How▁do▁you▁mean	-11.386
▁in▁the▁dark	-11.386
▁someone▁asked	-11.386
▁the▁countryside	-11.3861
▁goad	-11.3861
atory	-11.3861
▁idleness	-11.3861
▁overall	-11.3862
▁possible▁way	-11.3862
▁you▁were▁asked	-11.3863
ers▁of	-11.3864
▁weaver	-11.3864
▁listened▁to	-11.3865
▁of▁that▁age	-11.3865
▁No▁doubt	-11.3865
▁based▁on▁a	-11.3865
▁confined	-11.3866
There	-11.3867
ood	-11.3867
▁the▁best▁course	-11.3868
ing▁ourselves	-11.387
▁are▁useful	-11.3871
vy	-11.3872
▁an▁unjust▁one	-11.3872
▁an▁orphan	-11.3873
▁harmonized	-11.3875
▁rarely	-11.3875
▁The▁Greek▁word	-11.3876
▁very▁strange	-11.3877
▁willing▁to▁be	-11.3877
▁should▁ever	-11.3878
▁assemble	-11.3878
▁His▁name	-11.3878
▁or▁subtract	-11.3878
▁checkers	-11.3879
▁well▁born	-11.3881
▁carried▁out	-11.3881
▁recited	-11.3882
▁different▁times	-11.3882
▁excessively	-11.3883
lock	-11.3884
▁to▁start▁with	-11.3884
sking▁questions	-11.3885
▁framed	-11.3885
▁boy▁he▁loves	-11.3885
▁a▁demonstration	-11.3885
▁seemed▁to	-11.3886
▁into▁exile	-11.3886
▁in▁many▁ways	-11.3886
▁reverse	-11.3887
ed▁by▁the▁law	-11.3888
▁a▁single▁name	-11.3888
▁love▁of▁wisdom	-11.3888
▁oversee	-11.3889
▁to▁feed	-11.3889
▁of▁service	-11.389
▁when▁the▁soul	-11.3891
▁brave▁men	-11.3891
▁sparing	-11.3892
▁forbidd	-11.3893
▁often▁enough	-11.3895
▁Hermes	-11.3895
▁correspondingly	-11.3896
▁the▁other▁thing	-11.3897
y▁no▁means	-11.3898
▁argued	-11.3898
▁varie	-11.3899
▁seller	-11.3899
▁teachers▁of▁it	-11.3899
comprehension	-11.3901
▁and▁mine	-11.3901
▁I▁presume	-11.3902
t▁it▁follow	-11.3904
se▁very▁things	-11.3905
▁strive	-11.3905
▁I▁said▁just▁now	-11.3906
▁very▁little	-11.3908
ology	-11.3911
▁oligarchic	-11.3912
▁we▁shall▁say	-11.3913
▁in▁opposition	-11.3915
▁a▁profit	-11.3916
▁painted	-11.3917
▁got▁up	-11.3918
▁think▁he▁is	-11.3918
▁Asia	-11.392
▁asking▁him	-11.3921
▁this▁part	-11.3921
▁sum▁up	-11.3921
▁either▁side	-11.3922
▁those▁whom▁they	-11.3923
▁yielding	-11.3924
▁a▁small▁part▁of	-11.3924
▁your▁laws	-11.3925
▁look▁like	-11.3926
▁concluded	-11.3927
▁foolishness	-11.3928
▁I▁have▁to▁say	-11.3929
▁port	-11.393
▁the▁beneficial	-11.393
▁sort▁of▁expert	-11.3931
▁praying▁for	-11.3931
▁are▁full	-11.3932
▁the▁ut	-11.3932
▁Since▁you	-11.3937
▁of▁the▁citizens	-11.3938
▁temperately	-11.3938
ed▁through	-11.394
▁The▁third	-11.394
▁the▁same▁people	-11.3941
▁breathing	-11.3941
▁have▁come▁to	-11.3942
far▁a	-11.3943
hem	-11.3948
ed▁to▁the	-11.3948
▁prescribes	-11.3949
▁This▁means	-11.395
▁politicians	-11.395
▁wrestlers	-11.395
▁the▁Achaeans	-11.3951
▁a▁unit	-11.3951
▁bla	-11.3951
▁over▁them	-11.3952
▁their▁wisdom	-11.3952
▁more▁explicit	-11.3953
▁wandering	-11.3954
▁senseless	-11.3954
▁all▁mankind	-11.3955
▁the▁Beautiful	-11.3956
▁cobblers	-11.3961
▁of▁Necessity	-11.3963
▁the▁two▁of▁us	-11.3965
▁a▁genuine	-11.3965
▁what▁do	-11.3968
▁expected	-11.3968
▁in▁Crete	-11.3969
▁taken▁together	-11.397
▁a▁huge	-11.3972
▁visible▁things	-11.3975
▁If▁you▁like	-11.3978
▁formulate	-11.3978
▁The▁word	-11.398
▁be▁expected	-11.398
▁Con	-11.398
▁speak▁well	-11.3982
▁along▁with▁them	-11.3982
▁of▁Posidon	-11.3985
▁things▁not▁one	-11.3985
▁listed	-11.3986
▁an▁imitation	-11.3988
▁attendants	-11.3989
▁I▁fancy	-11.399
▁disintegrat	-11.399
▁has▁come▁to	-11.399
▁babbl	-11.3991
▁for▁as▁long▁a	-11.3992
▁the▁oldest	-11.3992
▁by▁necessity	-11.3993
▁chariots	-11.3994
▁majority▁of▁men	-11.3995
▁each▁one▁of▁the	-11.3996
▁to▁contribute	-11.3998
▁a▁non	-11.3998
▁surpassing	-11.4
▁I▁think▁so	-11.4001
▁should▁rule	-11.4001
▁the▁same▁degree	-11.4002
ell	-11.4004
▁it▁not▁be	-11.4004
[...]
